/**
  ******************************************************************************
  * @file    bilstm_model_data_params.c
  * @author  AST Embedded Analytics Research Platform
  * @date    Wed Sep  4 16:24:29 2024
  * @brief   AI Tool Automatic Code Generator for Embedded NN computing
  ******************************************************************************
  * Copyright (c) 2024 STMicroelectronics.
  * All rights reserved.
  *
  * This software is licensed under terms that can be found in the LICENSE file
  * in the root directory of this software component.
  * If no LICENSE file comes with this software, it is provided AS-IS.
  ******************************************************************************
  */

#include "bilstm_model_data_params.h"


/**  Activations Section  ****************************************************/
ai_handle g_bilstm_model_activations_table[1 + 2] = {
  AI_HANDLE_PTR(AI_MAGIC_MARKER),
  AI_HANDLE_PTR(NULL),
  AI_HANDLE_PTR(AI_MAGIC_MARKER),
};




/**  Weights Section  ********************************************************/
AI_ALIGNED(32)
const ai_u64 s_bilstm_model_weights_array_u64[108674] = {
  0xbb3c6a0dbca4ce58U, 0x3bf228d03c45f8b4U, 0xbc4975873c1dd48fU, 0x3d1a3219bb5e875dU,
  0x3ca58a01bc3f768eU, 0xbd0faa68bc4fb9faU, 0x3c4c8a8c3cab70e1U, 0xbc86d5fe3c53a6e1U,
  0xbb9cf6debc9b0ad7U, 0x3c87520bbc24c2f2U, 0xbcdafd93bc8c2cccU, 0xbc366cb43c403616U,
  0xbbaf5e913ba14ad2U, 0x3c86b8c33c9d5834U, 0x385ce7f53a9a87b8U, 0xbb728dea3cf01cd0U,
  0x3d182e053c93ecebU, 0xbb3cd9303cf6fa0dU, 0x3cb3d462bbf56dfeU, 0x3d135f21bcff00b9U,
  0x3b788e23bc69c1a3U, 0xbcf19b363d253656U, 0x3cb3be0c3d204d08U, 0x3b9f25473ca85b0eU,
  0x3d1f6213bc8b606cU, 0x3c47ea4c3bf41c39U, 0x3c9f83c3bcee9760U, 0x3c91622b3c651fe4U,
  0xbcf5ad65bbe8a51aU, 0xbd05209ebc15e8acU, 0xbd0ba82bbc4a1e71U, 0xbcaba8eabc567c61U,
  0xbbb0660d3bf70342U, 0x3bb8abe63cf40336U, 0x3bec94c7bc4c03c7U, 0x3d0cf7e5bcc29aebU,
  0x3bf89e3a3c142208U, 0x3b859a03bbf75980U, 0x3d06ed86bba8d43fU, 0x3d2a11423ce6d2c7U,
  0x3c2054473c6ba56dU, 0xb8bd5333bbf16a21U, 0xbcbc5a293d35ac33U, 0xbcb99d4c3b56e3fbU,
  0x3cd768e1bcddfbc7U, 0x3cde16ed3d188596U, 0xbcb7ba853c786b3dU, 0x3c8e8876bcb63c01U,
  0xbc330252bcdddee0U, 0x3cff8afc3c489675U, 0x3baaf80dbcb14f8eU, 0x3c9f1691bca4b528U,
  0x3d2671cdbcbb8d1bU, 0xbcac2554bbfac9ccU, 0xbc3708e0bcb6f86bU, 0x3d054457bcd56055U,
  0x3d3ef221bc54dba0U, 0xbb4bc028bce28876U, 0x3ce5b4fb3c9615cfU, 0xbb0c640cbc44f9bbU,
  0xbd00d3213ccdd19eU, 0xbc2852693b092475U, 0xbc53e7a6b92cb9deU, 0x3ca6b024bcd7f4feU,
  0x3d1b9c3abbee7ff1U, 0xbc2633c4bcab1d0aU, 0xbbe3bb21bc2af851U, 0xbcac10c2bc3ddb68U,
  0x3b8cf9f33d0f098bU, 0x3cacf4893c67cd51U, 0x3d05f2f13d2bcc60U, 0xbd08e4a23ccae6ccU,
  0x3d0ed8fbbcbe7633U, 0xbc9f15643c93faafU, 0xbcfa9caa3ceb7400U, 0x3cb4563c3d126059U,
  0x3bf49583bcb764eeU, 0xbcebf89dbce1b7fdU, 0xb9c61be93b828a46U, 0x3cba4a813c47133aU,
  0xbcc3d2a13d096e90U, 0x3c6181c7bc8ee082U, 0x3d12243abd082c00U, 0x3c773e57bc8a25f2U,
  0xbd13bad0bcc1763aU, 0xbd0c45ecbb88b5c4U, 0xbcc7c7f1bca50ce3U, 0x3b2efbb3bcb6988cU,
  0x3c843db9bc568d92U, 0x3d0537bf3d041fdcU, 0x3bc8ad093cc5371dU, 0x3d006429bc96b0eeU,
  0x3a2399143c3f7e30U, 0xbb2154583cb20887U, 0x3c3f2eaa3d04f498U, 0xba57b3143bff1d59U,
  0xbd1f2b613cf9d5c8U, 0x3c24d64bbc47510cU, 0xbce8a588bcf3f091U, 0xbc0f22033c1d0a2aU,
  0x39e2de0fbc25d0ddU, 0xbbf056363c728040U, 0xb986a4e0bd2860d7U, 0xbcba6247bcade0c2U,
  0x3b551eb23c833910U, 0x3ccf8ef0bc741532U, 0xbc9786743cd38208U, 0x3bf086abb7858647U,
  0x3d0252e3bc0e7779U, 0xbbfc512f3d111df2U, 0xbba2d800bcce4f23U, 0xbcd81b6f3c0bdbf7U,
  0x3cc908babcad59efU, 0x3c09033ebca2e9f3U, 0x3d0c32dcbd1ff473U, 0xbbca1672bc8b876aU,
  0xbab1070cbcc20bedU, 0xbcc72f063cc68ec2U, 0xbcafab743c4102fdU, 0x3b7b4366bc926489U,
  0x3d07aa6a3cad440eU, 0xbcc89f2cbc88ba19U, 0xbc4851e63cb03a01U, 0xbc76ce18bbd0122eU,
  0x3d00a3ab3cd20807U, 0x3c25c1053cd2c935U, 0xbcc4d2b2bc7facc3U, 0x3cf1b060bb5e707bU,
  0xbc927569bcbb18baU, 0x3d05e17bbcff90a0U, 0x3b3a31443c8e18b1U, 0x3d0b9d96baae08d7U,
  0x3ce39e10bc9195a5U, 0xbcebb8bb3cabbbd0U, 0x3cd09bdb3ac732ddU, 0x3d0994ebbc90e4b7U,
  0xbd11feab3be16ae5U, 0xbceeaf81bcfdb2b3U, 0xbc10a0553ca244d7U, 0x3c379e10bcdeeeadU,
  0x3c0316303c5b2744U, 0xbbcae544bc97fff3U, 0x3cc539ce3c90b577U, 0xbcc54fff3cbeb8fbU,
  0x3d2dd88d3c1eeedcU, 0xbc5b175e3c9d2ebdU, 0x3c8ebd7dbbf0d086U, 0x3ba9bc703af37691U,
  0x3adbaf5c3c8e619eU, 0x3c758c09bb41ac60U, 0xbc088c5d3bc54bbaU, 0x3d1229533c80c741U,
  0x3c43cfcdbae5b993U, 0x3cacc08bbc0484c9U, 0x3cfde05c3c8e5755U, 0xbd058a663c425385U,
  0x3d055c1fbbc1e0a1U, 0x3c9c2252bd117f58U, 0xbc36c3cf3a8e0529U, 0xbcd5da6bb8cdc8afU,
  0x39135a763c9b62aaU, 0xbc9cf88a3c9b4a1aU, 0xbc2dc2ffbce54c13U, 0x3cf2d4abbcff4619U,
  0xbc0a5cbabaee61a5U, 0xbc009be9bcec5ebeU, 0x3cb6dafd3cf26447U, 0xbd0126c63bfdf744U,
  0x3d1220fdbc884b9eU, 0x3c98b368bba8c68aU, 0x3c01f1023c167bd8U, 0xbc30ace93d11d8c4U,
  0x3cc29ebfbcd5cc20U, 0x3d183eabb9bbc44bU, 0x3c116547bcdf2ce8U, 0xbc8904f03c034246U,
  0xbcd57eccbcf44593U, 0x3c5d2bda3c596e5bU, 0x3cfb9323bce3ea8cU, 0xbc1d44d93c15a615U,
  0x3c3da6f53cc876c2U, 0xbc7f3091b9079d9aU, 0xbced891c3d0e9705U, 0xbd02b9303be41c4dU,
  0xbbbccfd7b99576f4U, 0x3d288a12bcd6d3e9U, 0x3d29be3f3b491addU, 0xbbefe31c3c875bf0U,
  0x3938ed91bcfa4cc2U, 0xbc86d88cbc56eefeU, 0xbc4dcd223cf8fd26U, 0x3c8c34c73c98c42bU,
  0x3cb2db2bbcd28099U, 0x3bf0deda3b64a783U, 0xbb5a0a4c3c8873e4U, 0x3cee00803cdcb96fU,
  0xbca8a03dbc9d26f9U, 0xbb160979bc42cf58U, 0xbd18a1e53cf9fb31U, 0x3d0fb9083c1922ceU,
  0xbc7b837a3b8240b5U, 0xbc88cef3bcaa4cbcU, 0x3c97aa29bc1bbfd4U, 0xbcfcde2cbc9bc796U,
  0x3cf3ea253cf3b274U, 0x3cd1b82c3d10b681U, 0xbcc05d623a8f1daaU, 0xbd10ee79bcf034c7U,
  0x3c930a513ce341e7U, 0xbcea844dbad0c36bU, 0xbc37d8d6bd088d72U, 0xbd197e2dbc4c4b7fU,
  0xbc2c0944bc4a7a48U, 0x3cc44a4d3c544947U, 0x3c03efa2bbc60679U, 0xbcd041203c05c972U,
  0xbc773ad53ced632bU, 0xba5152813c0492c5U, 0xbc02fbc6bc3aac19U, 0xba9ee3413cf5151eU,
  0xbbed5cfebd081e90U, 0x3c41c58fbc0f507aU, 0xbccd2acabbf35ddeU, 0x3cadf3e53cd9ae5fU,
  0xbb5266adbc171e9cU, 0xbcd74240bca31199U, 0x3cd51820bcab9c45U, 0x3d01d755bcb17a1bU,
  0x3c40337c3cca0bdfU, 0x3c5967833c85d55aU, 0x3c2367213bbfe36dU, 0x3cdbe378bc0b6086U,
  0x3ccc2ca33c13523fU, 0x3ca942ecbc137490U, 0xbcde6a2bbc9ac3e3U, 0xbcf7f781bc9f0f84U,
  0x3c5ba8ccbcf59a02U, 0xbd096b8e3cb5fd87U, 0x39ab1f913cfb0008U, 0xbc2f1886bc7b0273U,
  0x3b62ed5c3cbbd751U, 0x3cd84699bc29ebcbU, 0x3c815c893bfd20d2U, 0x3c0b3f8abba9ceaaU,
  0xbcba81ac3cb73b49U, 0x3c25df913be77065U, 0xbc91d1393cdbae5eU, 0x3c900f833b44f2bdU,
  0xbca2505ebd023ca4U, 0x3ce8e3493c074d81U, 0xbbd30f733d14bdcaU, 0x3cd48549bbc9aac9U,
  0xbbfe3a67bc8e9c4bU, 0xbcbc572dbc8fd48aU, 0xbc379a623a9eadb0U, 0x3c86229d3d19fa23U,
  0x3d0526b1bb8b7c4dU, 0x3d3b22853c83787fU, 0xbc40152b3cbea5c3U, 0x3c13be4d3bb1a3ccU,
  0x3c2f537f3c294c1bU, 0x3cd27fe43d171529U, 0x3ca9f07a3be77338U, 0x3cd415523c375dacU,
  0x3c9651093c0185f0U, 0xbbe765423cda5bfeU, 0xbca3e9433ca63b27U, 0x3d0bd15fbce66047U,
  0x3bd180b33d229bdcU, 0xbc11a1e03c2690d2U, 0x39a543783cc8b6f0U, 0x3d2e12593bbc31a6U,
  0x3d10afd7bcd51feeU, 0xbd0136bebcc4a8ddU, 0xbb932c43bc861a8cU, 0xbcb50eb2bcfcf72aU,
  0x3cfda3a43c5656d6U, 0x3d1ed74f3c5fa029U, 0xbc5dcb9bbbdbf063U, 0x3d29e5143cbfb8c4U,
  0xbcda9afc3b8f0f6eU, 0xbb2c70683caa8b9fU, 0x3cb3a9d4bb65339eU, 0xbcc666b83c9e50a5U,
  0x3ada8fde3d109c50U, 0x3d041d9bbbef9605U, 0x3b0108d2bccfe632U, 0x3caa87f5bcbf1d15U,
  0xbc992fe33cfca8d7U, 0xbd05a5413cce8098U, 0x3caeb18dbc86f960U, 0x3cc9001d3cce4d04U,
  0x3c6682163cba781dU, 0xbcc76215bd02d2c8U, 0xbc7c4912bb601192U, 0xbc64b2b9bc8bac00U,
  0x3bb35f3f3d0939a3U, 0x39a295453c6eeb87U, 0x3ca6092bbced73fbU, 0xbccecc863c7d7a4eU,
  0x3c45f9b13cf38f6cU, 0xbbf3416e3cd2c56cU, 0x3c25379c3cae4449U, 0x3ce6fe173c82a293U,
  0x3cc933253d16e36bU, 0xbcf98977bcd5315bU, 0x3d25d92e3ab80412U, 0x3c0778523b5e413eU,
  0x3c3e65123d1bebc1U, 0xbcb4b4c83d26ab67U, 0xbcb87b093d24ddbaU, 0xbcdc50e4bc71540bU,
  0xbc0af5b73d0b76a0U, 0xbd1514f83c3db494U, 0x3cfb25c3bce3b8ecU, 0xbcb6109a3b083541U,
  0x3ca5590d3acb1629U, 0x3cd90b05bd13445fU, 0xbd03a3b83a797c44U, 0x3d039d8b3b37fdf8U,
  0xbcd82bfb3c41033aU, 0xbcc12af43cbc9b36U, 0x3ce1d9413d088df7U, 0x3b8a55c3bc809e2aU,
  0xbcd58bd0bc0743d3U, 0xbcf45fd53c97c828U, 0x39ffe28c3850b5ebU, 0xbc589955bc029399U,
  0x3d21510abc8a847cU, 0xbd0236ad3ca2e018U, 0xbcd9df79bbf74749U, 0xbd0e3864bcbd050eU,
  0xbc30753c3b4c0161U, 0x3c8871873cb25506U, 0xbc9b0a35bb1a862aU, 0xbc4607083c6974caU,
  0x3cc04c8bbb9ed34bU, 0x3cd747d0baebccbdU, 0x3c65aa743cdc7618U, 0x3cf48e30bcc7d92eU,
  0xbc6ab657bc88338eU, 0x3d0452ae3cdc34c6U, 0x3c94b831bcde0486U, 0x3d0313793c4de213U,
  0xbc25b646bc9028b2U, 0x3cf9c61f3c8b7bceU, 0xbbb740943d259685U, 0x3cf2e18b39f40a6eU,
  0xbb942f023b99117cU, 0x3cb4781fbc4a7d8dU, 0xbccc21843c7b164cU, 0xbc6aa80e3c9569e1U,
  0xbc94d24d3bcdbf49U, 0x3ba1cc753cdc6275U, 0xbcd0ec0d3bc19e06U, 0x3d0dafa83c121b5aU,
  0xbc2df05b3cdee552U, 0x3d159c25bcee2471U, 0x3d1691fabcb69158U, 0xbc8f8008bc6762e8U,
  0x3cc7f825bcf11f9dU, 0xbcb9b65fbc4ac745U, 0xbb8e449abbe18bc5U, 0xbd0cb9f33ca89909U,
  0x3c76c0173b978dc3U, 0xbd0208fb3c4a1894U, 0x3c8ea6edbcaff48cU, 0x3d1f2c6dbd01b9d3U,
  0xbd07b8ee3ceab604U, 0xbcfe4c94bcf0eb5bU, 0x3d14ce1f3c0c7769U, 0x3b27f997bcc19acdU,
  0xbcc08587bc8fa179U, 0x3cf4a175bd06a25cU, 0xbcdd17cdbcfe2961U, 0x3cc0ae4abbb06d1fU,
  0x3c8bf72bba0d4dccU, 0x3bc854813c6fd1b5U, 0x3caac3d13ce8482aU, 0xbc16ccbebc9bb36aU,
  0x3c7937d13bf987dcU, 0x3c904cf43d0fcbd9U, 0xbb205ca23c9c756bU, 0x3cf6507bbb662c74U,
  0x3d2428833d17cb44U, 0xbce101073bfb1941U, 0xbcfccaaf3d0f9b4fU, 0xbc58d9423cfeed7eU,
  0xbcdb47bdbcd19689U, 0x3c547380bc98f287U, 0xbcc685a9bcad5119U, 0xbc8955e2bc65c38bU,
  0x3a8f2a553d15d560U, 0xbccae34dbca92b17U, 0xbd043798bcc1cbbaU, 0xbd05638c3cb2a0a4U,
  0x3b0199893ab1a966U, 0x3d1c0cafbba95fe3U, 0x3c1c1f3a3ccbc42eU, 0x3c98c7503b6d5d4dU,
  0xbbbc6e1d3d22abf3U, 0xbc6fbcf53d24f465U, 0xbd09df2fbb851780U, 0x3cad72fa3b2be60aU,
  0xbc914925bb368773U, 0x3c02bdabbcf7cd55U, 0x3b16ad8d3d1646acU, 0x3c93c601bd029fadU,
  0xbca698993c7b7ea5U, 0x3ab9cb483c94f26cU, 0xbc31649b3d25291fU, 0xbcd9d6273d1ffb38U,
  0xbc5bc4173cda1d12U, 0xbcb03d503c7826bfU, 0xbb07f05bbbe92080U, 0xbd06fb153d19fccfU,
  0x3c23cd1a3d1f3a9aU, 0x3c215c98bcf64707U, 0x3ce5a4203c05d714U, 0x3c8724b1bcf8cf86U,
  0xbcaf0f223d004519U, 0x3c95c121bd00d8bfU, 0x3cad9d3d3d09fe44U, 0x3cd8ef2dbd050e3eU,
  0xbc86f29ebcac6967U, 0x3cf78a713ce69318U, 0x3d273b3cbcdee284U, 0x3cb5d242bccf615dU,
  0x3c53bf03bcb7255fU, 0xbcd970eebca98176U, 0xbb596dfd3c964714U, 0x3d005afabc1a1fc6U,
  0xbd06169bbbfaf0eaU, 0x3b964ab5bcbb55fbU, 0x3cb2c5fe3cd13487U, 0xbd0015ea3a9b1345U,
  0x3cf799853d14aa72U, 0xbd06bda73c49b1feU, 0xbd05d894ba9d50bcU, 0xbbceed1cbb872642U,
  0x3cb7736c3be83d8aU, 0xbb0ba13ebcd6ab5cU, 0xbc82fde7bcc610dbU, 0xbc8c61243d0ec222U,
  0xbd0aa69d3c81f5c7U, 0xbc874ac4bc573c1fU, 0x3cf32c42bd096b98U, 0xbca371f0bc24b240U,
  0x3d0192f33c6d7dbdU, 0x3c25abacbb0f864cU, 0x3d236ef63c22477dU, 0xbce5da2f3d123f1eU,
  0xbba1718a38d47fe2U, 0x3ce2597dbcd0690fU, 0x3d1dbae5bc6a0502U, 0xbb4da52d3c644abaU,
  0x3ab4f2eabcd545d0U, 0xbd0b92693c252cfbU, 0xbc5eb3943ba95344U, 0xbd0bfea2bbd7b879U,
  0x3ce8015dbcc575ecU, 0xbcd9d5303ced9db0U, 0x3d14312f3b3f827aU, 0xbd07e29b3d165b28U,
  0x3d24100cbd008a9aU, 0xbcc6b8afbc82cdbaU, 0x3bfb8ba13cf3e20dU, 0x3d2510b7bcd5d61aU,
  0x3cfa7043bcb261a2U, 0x3a518f953cecce40U, 0x3cefb30f3cec84f7U, 0x3cb35e7fbce9eeadU,
  0xbc429736bcc18200U, 0x3cfb219fbcfbeb99U, 0x3c8fdd2a3d0eda73U, 0xbab4dbf7bcfa552dU,
  0xbc1e41d6bce92217U, 0xbc327f64bcb13b8cU, 0xbbcc97e4bbeb696dU, 0xbcfcdb043d13ac6fU,
  0x3c35a32ebc85b902U, 0xbc97a4283d1abcb1U, 0x3d0b7a123ca97efbU, 0x3b5da033ba20e142U,
  0xbceebb77bbbf8555U, 0x3d155208bca94dbaU, 0x3c9e1ab23c0b182fU, 0xbb0881babd0806e7U,
  0xb7c6205d3cbd1da9U, 0xbd06ec6f3d1f0c21U, 0x3cd52d313cf4e8feU, 0x3ccc88b3bb32c0c5U,
  0xbbf180b9bce18325U, 0x3d21626b3d07ccf8U, 0x3d111c19bcc1c798U, 0x3c964bcabd05f627U,
  0xbc048ceabcce5104U, 0xbd0be1d03d15b971U, 0x3cc98d91bc586c9bU, 0xbc1997cdbc72e840U,
  0x3cdc2521bc904712U, 0x3ccb14323c8a2661U, 0x3b27fe3e3cf69e14U, 0xbcab6d543c9b8a8cU,
  0xbb7262ebbbd20db4U, 0x3c8fa6b63b701a01U, 0x3bfa3a123ca35dcfU, 0x3d09f6c63be0fbc2U,
  0x3c80e8c0bce8c291U, 0x3bf6fb813d1647b9U, 0x3d1df5e6bcf022c8U, 0xbb5c76a4bd09432eU,
  0x3ccc2422bd20a4e4U, 0xbcbaf84f3c27c58aU, 0x3d24e1ccbb851dadU, 0x3c705f683b9c4b04U,
  0x3d2d24bf3d003707U, 0x3cc85b333ccd8ef3U, 0x3d35c6f13d5d876aU, 0x3d6cc25b3b86e3feU,
  0x3d7381ee3d337713U, 0x3d5a1a443c56ff70U, 0x3d29457d3c85107fU, 0x3d783f653d16aae7U,
  0x3d382d1f3bd75894U, 0x3cdd43d33d893757U, 0x3d2243453d11d11dU, 0x3d2587b53d80e547U,
  0x3d2d6ec33c86fa09U, 0x3d8b89e43ca4818bU, 0x3d291ca83d4e0b2cU, 0x3d631ffc3d1601faU,
  0x3ccd6bb43d17fca6U, 0x3d5993003c927c86U, 0x3d6d4e383cdccda0U, 0x3b973dd23c357a7bU,
  0x3d6dfd7f3c41e5c2U, 0x3d859c12bba84fb2U, 0x3d3767f83cb5b32eU, 0x3d6ddc563cac21b1U,
  0x3d5ac1c53cb72a2cU, 0x3c79f9513b8a904aU, 0x3ca01e993c517e00U, 0x3c0200b13d06460bU,
  0xbc5f4a283d411175U, 0x3ca78561bc9cb712U, 0x3be14f803c9acbb5U, 0xbc03f264bcad3e09U,
  0x3cf1e0953d1f2513U, 0x3c059ab23c1269c4U, 0x3ce20897bcf29621U, 0x3a8a982ebc1b9f62U,
  0xbce255d93cc0282bU, 0x3c8b674cbcdced1eU, 0xbce61184bcb33905U, 0xbd170a073cbd30f6U,
  0xbc8855f73d0a3900U, 0xbb455720bcbd937cU, 0xbcd476babcc98cd1U, 0xbc309aeebcd8e6dbU,
  0x3c61e70fbc9411a0U, 0x3894739c3c860d10U, 0xbcfe57e3bbfc7b00U, 0xbd1d5f22bc2cabe5U,
  0x3c6129373bb69036U, 0x3d07775abd07f775U, 0xbc864008bd0dcf97U, 0xbd17a9ac3cf2caceU,
  0xbd226a95bbbb876cU, 0x3d0469ca3c2a877dU, 0xbc2b6c5d3b3076e4U, 0x3cc8529ebd0d54a4U,
  0xbca1830fbb961eddU, 0x3c7532f03d0da4f9U, 0x3c98f7583d0cb6dcU, 0xbca46977bae48ea4U,
  0xbd09d3c23a7967edU, 0xbccd25b4bc6af54dU, 0x3cf8d43d3cdc7dd9U, 0x3c59c28d3ce818d9U,
  0xbc479d60bd1a420dU, 0x3c937cbcbd19482eU, 0xbd00b955bd12f8b4U, 0x3c1833b73c36f2d4U,
  0x3c9a05d03ae32247U, 0xbc50370b3d04f671U, 0x3b5ee4b93aab878aU, 0x3cb2ae163beaf374U,
  0x3cc09a013bc6d75eU, 0x3c26c3623c274f1fU, 0xbcdbf4d53cded4c4U, 0x3bdcf0f93cda3dabU,
  0xbc404ba43c46e4c0U, 0x3cff78ab3c0f1b8bU, 0x3d02dee8bd008321U, 0xba05c736bd01441aU,
  0xbc165f97bd1b2793U, 0x3cfa23783a9e2103U, 0x3cda8ab43bdf6d17U, 0xbd0723cc3cbc13ddU,
  0xbcd540f8bd19d0bfU, 0x3bf832713ce04a00U, 0x3d01ef163be3b95bU, 0xbbd6ee153c71390fU,
  0xbbee5a46bce26836U, 0x3bc1252cbce2899bU, 0x3cbac5643a92c359U, 0xbcac31a43b32d6b4U,
  0xbc51803d3d009557U, 0xbcf006e4bcd906ebU, 0x3c1562fbbd15b819U, 0xbcc0549d3d07b602U,
  0xbcdc4908bce00dfeU, 0x3d019529bce7a5b4U, 0x3c897691bca643f3U, 0xbd20c54ebc8f0b2cU,
  0x3bfd7a1c3cb318adU, 0x3c8b16493bbf9275U, 0x3cdaaf7a3ac7d6cbU, 0x3ca70b7c3d12673dU,
  0xbc4efc8d3cdcb4a4U, 0xbd1a54e03a8e81eeU, 0x3d12e8b73cfd6b44U, 0xbcbf9ed0bd05fd55U,
  0x3b2254fcbc873c49U, 0x3c39743a3c81c246U, 0xbc97dfd93c82789eU, 0xbc38ff2c3d016a28U,
  0x3ca3e9283d03b0d2U, 0xbd20705dbd062de8U, 0x3ccf9a473d0a8058U, 0xbb5ce2b9bb319e48U,
  0xbd08f7a7bd1a7a18U, 0x3cdffc383c56162bU, 0x3c9823143cf28666U, 0x3ca6b114bca00894U,
  0x3be49ff13cba9bf5U, 0x3ca4b193bcdf5756U, 0xbc5f1989bcd4edc0U, 0xbd16aaa03c50f6a9U,
  0xbc26a22a3d049a6cU, 0xbba5f962bc84484dU, 0xbd00ae253b5a0bbcU, 0x3c3373e83cee8afbU,
  0xbccd27983ca3fdf4U, 0x3ca1bea43be5c0ebU, 0xbc008bc7bc8e9b53U, 0xbc85bb043bf80e63U,
  0xbd229d22bd29b416U, 0xbd3a1a5a3cd06d83U, 0xbd34ff6bbd2992e4U, 0xbcad82713bc077d0U,
  0xbc7ef871bd278b03U, 0xbc4620c7bd0cb393U, 0xbd0268ccbce2026bU, 0xbcad15053c233892U,
  0xbd2f5f17bd086060U, 0xbcf7f7323cc155aaU, 0xbd1300633c7a2a03U, 0xbc247a583cabf413U,
  0xbd38e1f9bc966d02U, 0xbcae4070bc7e3a67U, 0x3bb54cf3bd0df524U, 0xbab089453a9c2607U,
  0x3c7c936a3cae184fU, 0x3bc55baa3c84043cU, 0xbb6b923fbcb6a8f6U, 0xbd40cf8bbd166506U,
  0xbd3735d8bd06b7cbU, 0xbbc9d3223c5b2248U, 0x3ca4b7ef3ca77beaU, 0xb9f486013c510a64U,
  0x3c994fef3bb1edc0U, 0xbccd723bbb6cc2b5U, 0xbcc9e2fabcb8cb66U, 0xbd2c6c43bcc49178U,
  0xbbe52f67bd472cddU, 0x3c2c1e8ebcebee43U, 0xbc2bc91fbb9c9f4dU, 0xbcdb15afbd023cc3U,
  0x3c433194bcd2586eU, 0x3c4f5ccdbcb7063cU, 0x3c70ee45bd20913fU, 0xbd16c3bfbd1ec8f7U,
  0xbd23b8ba3b3bfd49U, 0xbd32bb46bd5a3347U, 0xbc12ed013c7852e4U, 0xbcfb479b3b721cfcU,
  0xbcc9a5c5bd2ac0ddU, 0xbd29bdf83c81e7f9U, 0xbc98d2a2bd61c057U, 0xbd56264abc25e76bU,
  0xbd26e674bcf973d4U, 0x3adb0968bd48366aU, 0xbc2c1b723b61fb60U, 0x3c22d796bd4204e9U,
  0xbd648fe63c9bc320U, 0x3c7eb2cebd157aefU, 0xbd5cd2ddbc6bc637U, 0xbc7ddc1f3abdf35eU,
  0xbd27f120bc2a2c2bU, 0xbd61413cbcaf94a7U, 0x3c85ad97bc84626eU, 0xbc96a4ae3c855974U,
  0x3bb1b7023bf8c355U, 0xbc8bd5c0bd2205ecU, 0xbaf3cdcbbd0f3042U, 0xbbd85e4e3a90f719U,
  0x3c865252bd063e0aU, 0xbbae70a4bcb119aeU, 0xbc27268ebcf4d9d9U, 0xbd462728bcb43f42U,
  0xbd1ab6eebd57659bU, 0xb8642102bcb50c8aU, 0xbc91ff61bb09310aU, 0x3b8aa35cbcd8f267U,
  0x3c1c1ac9bd632b2fU, 0xbb181c383c8f6877U, 0xbce0713abd2791ffU, 0xbcd876aebbf31936U,
  0xbd616f5abd0eae54U, 0xbc5e7b2dbd4b0f51U, 0xbd66b0aebcaca787U, 0xbcc46754bc90c4d1U,
  0x3c60d0debc9ce9a7U, 0x3a822f96bd079deeU, 0xbce66302bac96a3aU, 0x3c7b3ec1bd1ddefdU,
  0x3b50abddbd6683d2U, 0xbbb1d011bc674a60U, 0xbd63fe6fbd473e28U, 0x3c774b08bcaa1349U,
  0x3c75726ebd5a66a4U, 0xbd2bdc27bd4aeecfU, 0xbc8c515439b35f47U, 0xbc9c711ebd0329aeU,
  0xbb996f02bc29facdU, 0xbd03613abd22bf3aU, 0xbd3e0185bd4ce8b4U, 0xbd16c74ebd54b448U,
  0xbc06e789bc401be1U, 0xbc8cf99abd451f53U, 0xbd56f9b3bd42d66eU, 0xbd362c66bd65327bU,
  0xbd025ecdbb05f2a4U, 0xbd309ad4b6f131b7U, 0xbc8d5179bd02c01fU, 0xbd741c1d3abebbbeU,
  0xbce0b38ebb336518U, 0xbd6484dbbd7138d8U, 0xbd46f8d8bcf72832U, 0xbd75e019bd5dc1fbU,
  0xbd53ea58bc373610U, 0xbd11f812bd1a145cU, 0xba2332c7bcd3c9fcU, 0xbd163ee4bd7580e3U,
  0xbd6352a83c0a4a55U, 0xbd7d35e2bb69b5f3U, 0x3bca7a8abd3ddbcdU, 0xbba5b94fbcd3c6a2U,
  0xbcbbe0793b5eebaaU, 0xbd49afb4bcd0a927U, 0xbd0bb491bcb141edU, 0xbcc9d4acbcdb46eeU,
  0x3b65ea52bd4d31d4U, 0xbd6a2344bd286948U, 0xbd518707bd892e9eU, 0xbc9a0ce6bd3e402eU,
  0xbc68d9c1bd89c456U, 0xbbe1393abc15d1b7U, 0xbd258792bb6417c6U, 0xbd02c493bccf7562U,
  0xbd8b00b7bcc00118U, 0xbd4afcdabc15c1ddU, 0xbd86cb46bd1ae22fU, 0xbccbfee83b8dc1b7U,
  0xbd73014dbd169decU, 0xbd0e927ebd0125deU, 0xbd1280c5bd801996U, 0x3c4f2fdfbd53db11U,
  0x3b1dd267bd3c76aeU, 0xbd6543d0bc0caadfU, 0x3c29ef14bd6cc0afU, 0xbc81bfcdbc9aa976U,
  0xbb1cec623bb10e85U, 0xbd0bb477bc898429U, 0x3b4e1a873c8de5aaU, 0xbb70f4fcbceaa84bU,
  0xbce4fcbcbd49d212U, 0xbd1093f9bc5cae8eU, 0x3c9eb780bcc05049U, 0xbc92726bbd06d646U,
  0xbca1f5d6bd1f520dU, 0xbd14f9dfbd22269fU, 0x3abe29e4bc015beaU, 0x3cc9f63abbcbee3bU,
  0xbd0fa2a13b7d4b7aU, 0xbbfb82d9bd382c4eU, 0xbd34df6f3c950dc1U, 0xbc4a0bc13ca75612U,
  0xbca88bccbcf87608U, 0x37aaee613c08d2c5U, 0x3bc109e5bcadb4c7U, 0x3b9846c1ba85f8e0U,
  0x3cca11e63ce68d7eU, 0x3c9a37663c1fa84eU, 0xbc83edc63b55284fU, 0x3c4df569bc93ffd1U,
  0xbd20cfde3ca9e945U, 0x3c2cf982bd13f279U, 0x3ca0a586bd0b3194U, 0xbc1fe352bc406bbcU,
  0xb8f7d085bcf24f18U, 0xbd349b403bed402cU, 0xbcabe3373cab832eU, 0xbd10258cbcc780f0U,
  0xbd09edae3ae2538dU, 0xbd14859bbcc798a6U, 0xbd1eca75bc97cff4U, 0xbb60eb21bd1ef09bU,
  0x3cbda6f0ba751cf7U, 0xbd02862f3b9ad899U, 0x3cc12c4ebbcd6ad3U, 0xbb84810cbca2981fU,
  0xbc5d92003cdd3501U, 0xbca4e46dbc91deddU, 0xbcafd8cd3b818dcaU, 0x3b79f1db3cb96db6U,
  0x3c99e6343c45e59cU, 0x3cb4a3033ba471d3U, 0xbcc40de83c22b5eeU, 0xbb78b3bdb93f30a8U,
  0xbca4f3883c14aadeU, 0x3bdff5dbbc8dcaceU, 0xbd195f03bcef07c6U, 0xbd18efd63b000b92U,
  0xbcae0223bc4bf3cfU, 0x3c94a75e3c98fee9U, 0xbca0cde0bbfa98d5U, 0x3a36d688bcdb34b3U,
  0x3bdafa9e3bac4a5eU, 0x3ccb1999bc4b2968U, 0x3d0f41c0bb421277U, 0xbcd9b5f9bcd0f5b2U,
  0x3b39436f3bd855ceU, 0xbbe8ae8abd209ef1U, 0x3c3eadebbc80a58dU, 0x3c878abcbcd45637U,
  0xbc8f7c3a3ce5fac1U, 0x3c4a21c23b63a521U, 0xbcb71ccb3cc9079aU, 0x3ca34d1d3bca6803U,
  0xbcc13796bcf1d627U, 0xbc8f07acbcd594f7U, 0x3c792e88bbe8ef11U, 0x3cf3213abbcb7960U,
  0x3bf0a0f03c9a1205U, 0x3cf325dc3cf37accU, 0x3aa2b8e3bcb1a230U, 0xbcbd0260bc0ee012U,
  0x3d1b7f7d3cea8985U, 0xbc2ece9a3d0998d4U, 0x3bc25e65bc503c30U, 0xbd0beef13c8d3710U,
  0xbce97ed9bd0dd7bbU, 0x3ccf569fbc94fec4U, 0x3c2fbcde3a5e2c97U, 0x3cee5dca3c95a13eU,
  0x3c6c6a81bc6a3b8fU, 0xbc9b09d2bd1c1409U, 0x3acd5cd43cf1d264U, 0x3b7e4550bca11e6bU,
  0x3ced314ebcc2b2a3U, 0xbbe3cbe9bbda208fU, 0xbb75afbb3ca78b04U, 0xbd30bdf63c8cd152U,
  0x3cd9d3b0bd04fe4eU, 0xbcb3cda93974ff3dU, 0xbc665303bcec1dd1U, 0xbd35712fbd291504U,
  0x3cc655a93cf810d9U, 0xbd28c9d3bb7d5861U, 0xbb93b2173c21105cU, 0xbc0a132c3ca16824U,
  0x3b986e17bb03dbbcU, 0xbca50ff3bcc5a71aU, 0xbcdf87b7bd1b01faU, 0xbd192ce9bc8c03e5U,
  0xbc59c1593c3eb986U, 0xbc9b32b5bc04fae8U, 0xbd14b7eabcc3daeeU, 0x3a949d693c9f67abU,
  0x3b3de8303cae6cb1U, 0xbd077b673c83d881U, 0xbc8aa2043cc71fe8U, 0xbbc1cd443b6983ebU,
  0xbc9e2e94bcd73750U, 0xbb7158e3bab5706eU, 0x3d0953223c0daa5eU, 0x3b3d047dbb8e823bU,
  0xbd087a4b3c243c89U, 0xbae9718a3ccf5a33U, 0xbced416cbcef363cU, 0x3d0a36783cf5cce2U,
  0x3cd92ead3c7f348eU, 0x3bd0c0a2bcfdc124U, 0x3c2206823cb1ef79U, 0x3c44b663bd0e3299U,
  0xbcec67a43c49f97bU, 0xbcccf7b6bc5cc2a3U, 0x3c7539c63c8a2bc7U, 0x3a68ecec3d0183ecU,
  0xbcfab2363c2be08aU, 0x3c2733fe3ce4e91bU, 0xbd151382bbe06188U, 0xbd1757ba3cc465a7U,
  0xbc9bc52cbcb541d4U, 0x3ad7419e3cc791a8U, 0xbc5b5ae7bccdff0fU, 0x3cd328903bbcf8dbU,
  0xbcae0ccdbcec6abbU, 0xbc6c7023bbf8da8dU, 0x3cabb7bc3c11236bU, 0xbc9ec9b83c29f355U,
  0xbae00c973bd07c90U, 0x3c2ed69fbc748962U, 0x3cf8a1783cfdf00aU, 0x3b67ff323b8849efU,
  0x3d232dd6bb930511U, 0xbcf07a2ebb945e19U, 0x3d0165693cc558edU, 0x3cbe5e0e3b9eb08aU,
  0x3ba8e7fcbbdbc24fU, 0x3bb082dbbc42aa97U, 0xbcd227c53b11c49bU, 0xbcaf3f753d28d3efU,
  0xbb945ceb3cefe6b8U, 0x3c7619efbc8ed7adU, 0x3c6823b83c8f757dU, 0x3bbd5d44bb2adcf8U,
  0xbcd7f2913c63cbf0U, 0x3c8298c0bca30be3U, 0xbcb692e4bccb5a46U, 0x3ca183e0bd0262f7U,
  0x3c9452bbba3ba352U, 0x3c1cd64c3ca550a1U, 0xbc95b98abc2253ecU, 0x3c094e763cfc1ee9U,
  0xbb7203debcab3784U, 0x3c90789e395edd6dU, 0x3aa7f5a63c097ca3U, 0x39160472bcb61630U,
  0xbc636161bd043730U, 0x3d143c2d3bdbd17dU, 0x3b91168c3ceac9d1U, 0x3c9bc6ab3ce28973U,
  0xbce074a0bc20f7dbU, 0x3c9303493c97d2e3U, 0xbcc860deba9792baU, 0x3d121de03cbe9e40U,
  0x3ccbcfc33d17a9e4U, 0xbbd37fdc3c2fb6f9U, 0x3ceadfa9bcb3264aU, 0x3ae365c93c79fe54U,
  0xbcc8db09bbd556c4U, 0xbcfe0fb93d05f429U, 0xbcfa5cf2bc8d9e52U, 0xbcc7dff43b923dc5U,
  0xbbfb132d3c39b97fU, 0xbd0182e33b718c1fU, 0xbc3ad45b3c5a94a8U, 0x3c8044d0bc023cf6U,
  0x3cdacf85bc042deaU, 0x3cc48c33bc801d33U, 0x3c2819fc3d21dde3U, 0xbc9643e33cbbefebU,
  0x3b5fea07bb5d2906U, 0x3c39cac3bc9e05ffU, 0xbd0afbe63c87df4eU, 0x39d4f12d3d05d57fU,
  0x3cbb20d2bc9e4123U, 0x3c3fc89b3cf65898U, 0x3b53df533d0f67a3U, 0xbc99eac23d2a5a55U,
  0x3c8d856bbcae3f12U, 0xbcfbb17a3cbc98e2U, 0x3cac71dcbc4d2b35U, 0x3c91b889bca64dfdU,
  0x3c82a51c3c58ed92U, 0x3c86dee73d243e9bU, 0xbc05f9a8b906b52aU, 0xbaea50aabcb7c19dU,
  0xbc414b23bcdd88b7U, 0x3cacc720bd02e5ccU, 0x3c3922e33b2c89beU, 0xba313c533d0f0b8fU,
  0x3cd72451bbcc4398U, 0x3c89e1e23d09c3d7U, 0x3d0c0fdb3c3d4445U, 0x3c1f48c03caa42d2U,
  0xbb6594683b92b188U, 0xbb09403f3b512d08U, 0xbc8286793d0f4ea1U, 0xbbc819e93d1729d1U,
  0x3b7ab8223c00a676U, 0xbbeea6a23c748de0U, 0x3c881586bc40bb47U, 0x3d203ae4bcdae905U,
  0xbce62cd4bcb4683aU, 0x3c552dfd3d26d926U, 0x3a3572f33d3481d5U, 0xbc8283a73bc4c871U,
  0xbcd5724bbc8b9107U, 0x3ce261e93c8eafc6U, 0xbcacd26cbc32215eU, 0x3b928908bbffb47aU,
  0xbc7d32c73c4bc5edU, 0x3ccb3eedbc2e9091U, 0x3cda42ee3d1b9319U, 0xbc07a23fbca56ab6U,
  0x3d3809673d56d959U, 0x3d32b6febc49ddfeU, 0xbbe06a983c74b67dU, 0x3c50c0763d339a75U,
  0x3c3077f93d293652U, 0x3d0455e13c42fca4U, 0x3c0136b33ce25c52U, 0x3c2241d43d28ae07U,
  0xbc2e337d3d611e41U, 0x3d53250d3d16a97cU, 0x3ce4a8ef3d3b0d13U, 0x3d1e3f793cf4eb09U,
  0x3d57f9bcb7c0524eU, 0xbc5cdc553d3ab182U, 0x3cb0cfb8bc085999U, 0xbb1f44723d1c7e55U,
  0x3caf24173bfce4cdU, 0x3c9b8db43d217cf6U, 0xbc1d3ce23d140634U, 0xbaf9b0073c82a0e3U,
  0x3b1f0ae6bc4d03f7U, 0xbc111e563aeaec48U, 0x3c261e703c37f15dU, 0x3d17e8e8bc694c62U,
  0xbb06db743c8f6e2dU, 0x3c6583163d1e9cc7U, 0x3c95cba4bc65f40dU, 0x3cfe7d473d3023baU,
  0xbc6440b93c6df880U, 0x3cf708023d235661U, 0x3d0890693ade6db0U, 0x3cd71e543cc4f18eU,
  0x3c288161bccb43e0U, 0xbcc9f5bf3c95671fU, 0x3cc737f1bcd52224U, 0xbc3727b3bc232404U,
  0x3c4872553cc977a6U, 0x3cbee7ddbcedba9bU, 0xbbb62bccb6693f65U, 0x3c28dd733c97fb17U,
  0x3b88ac143b84cc11U, 0x3d2f43aebc10eafeU, 0x3d051d7e3cf7507dU, 0x3c96769c3cf769b4U,
  0xbbf2871a3cf2f54cU, 0xbc499dd53c2b8f23U, 0x3bc300d13c66ba93U, 0x3c3a787d3c0fde1cU,
  0x3cc48d32bad833fcU, 0x3d0ac0043b574c4fU, 0x3c9efd5cbc87fee5U, 0x3d055e8d3cb3777dU,
  0xbc97add23d2d4bffU, 0x3d15c69fbbbe7512U, 0x3c176f3f3cb2ebeeU, 0x3d2bd7043d0efba9U,
  0xbcae53cd3d17e8eeU, 0x3d0084aabc2db440U, 0xbceff3df3cd8a9ffU, 0xbc820601bc94ecd4U,
  0xbcdc93863c585f65U, 0x3d0b19f03d1cb728U, 0x3ca0b7aa3d07a862U, 0x3d01cc523d275841U,
  0xbbca864b3d1ab811U, 0x3cd20c543cd06f4eU, 0xbcf7746e3c1666f8U, 0x3ca9fbdcbcf8e458U,
  0x3bb2e812bd0434ffU, 0x3c3f63d03c59459cU, 0x3d199577bd03f755U, 0x3c8c1fe2bce9fc9eU,
  0xbc13dd6f3cd411baU, 0x3cd56b8abd1446c0U, 0x3d216f373c9f9783U, 0x3c4c94f4bb875a73U,
  0xbc9b044b3d20ea83U, 0x3d01fc72bce3f7d4U, 0xbc89ef78bb499a8cU, 0xbc5abdadbd0f4c88U,
  0xbceb0b163d1addb7U, 0xbc1841aebd12473bU, 0x3d11f44039d04bb5U, 0x3ca000f0bc9137ddU,
  0x3b1a0a2f3cb9fc8fU, 0xbc8eeecb3cfb29afU, 0xbbafe352bbefc8e4U, 0xbc8b2d30bb978436U,
  0xbc89ced4bbf5c30cU, 0xbd0486803c4142afU, 0xbcafc21c3d082f3aU, 0x3cfe9178bae11404U,
  0xbd0a2dbc3ce17c09U, 0x3c5e8e0dbc1bf19fU, 0x3b2994523ca7c6d6U, 0xbac2b9cebcae29eaU,
  0xbb852ce93bc7e850U, 0x3c38b145bbebccefU, 0x3c12cbd83ce923e7U, 0xbc7e13cd3ca191adU,
  0x3bb2f9613cba9060U, 0xbb7aa1193bb4f0ecU, 0x3cfb1a3abbcc3bdbU, 0xbcf7270cbd17276bU,
  0x3cd11ae43ca04789U, 0x3c5446b0bc877d03U, 0x3c0834a53c8f018aU, 0xbccfaeeb3bdd6f18U,
  0x3c9e47c6bc74f10cU, 0x3c73f0023c358798U, 0x3cb906b1bc8bc85dU, 0xbb9305fd3ce9497bU,
  0x3a945ef43c04f9b7U, 0xbcc197cabb9edf27U, 0x3cbe5990bbcfb7ccU, 0xba43f4643d1e7d06U,
  0xbc4c514d3c7e762bU, 0xbc7879c13cad03ecU, 0x3d2641ef3ceb4593U, 0xbcaadea83c5f6233U,
  0xbcda0265bbfa122dU, 0xbc2b216f3c85b508U, 0xbce5855bbb379f4fU, 0x3d02b24c3d0d4667U,
  0x3d16f269bcd93267U, 0x3d28652e3d264eaeU, 0x3d0fea663ba39031U, 0xbc52a1e7bcca43c3U,
  0x3ccfbe433ca48970U, 0x3cf2486c3c90a29dU, 0x3c4ce2183cda021dU, 0xbcf4e7e4bd034491U,
  0x3cc92475bd0f905fU, 0x3b6e6b41bd08ca76U, 0x3cad9a013d1b5958U, 0x3cede7e0bb56763fU,
  0x3c3429853c13ab7dU, 0xbc08d19f3c384e01U, 0x3d0cd14ababcfb88U, 0xbb97877cbcabb325U,
  0x3d0bd235bcd45729U, 0x3d00fe3e3c711621U, 0x3b186d1cbcce10f6U, 0x3cf17d8ebb2d3744U,
  0x3c1a294dbc312f03U, 0xbcef1063bcc9ac48U, 0x3ceddd2fbc15b0a6U, 0xbbfa8e5fbc4e7018U,
  0x3c1068c33c46e7e4U, 0x3c5f74b43cebce88U, 0xbcf62eb8bce4fb41U, 0xbc665179bbfe2cddU,
  0x3a2451da3d0ca47cU, 0xbcc81981bca58abeU, 0xbd0149c93be1e0e9U, 0x3c47a80dbcf805f8U,
  0x3c934d07bca42554U, 0x3cbf9742bcaa33c8U, 0x3d025fb0bcf32b47U, 0xbc8b4fbfbcbfc777U,
  0x3d0f04a13c86723bU, 0x3cd77053bbcb46d7U, 0xbd1c33f1bcd131c6U, 0x3ce7acc33cf58cf1U,
  0x3d1891ae3bbf00e3U, 0xbce522d1bc933c05U, 0xbb239014bc54d3a9U, 0xbcda1a23bcd8c1f4U,
  0xbbc452e8bcf82dc4U, 0xbc422f52bcaee4ecU, 0xbd1816303b306672U, 0x3a8a8e473c7d5609U,
  0xbc011173bc2e6bfbU, 0xbd07ba8c3b593c1aU, 0x3c89c1dabc9f8395U, 0x3bcd8effbd0250bfU,
  0x3b827e3fbcf0504fU, 0x3bf42dc2bcd58ae3U, 0x3d1356a0bbd6ab7aU, 0x3a918df13c8a047eU,
  0x3cc471793c06f157U, 0xbd0f525f3cbfc1c0U, 0x3c6adc673cac197bU, 0xbd0fac073c25d33eU,
  0x3caf845b3b5d0709U, 0x3cff1935bc53bcacU, 0xbd11f6243d09b156U, 0xbcb1b3ecbd1d525aU,
  0xbd2263903cf02c9cU, 0xbd16b67bbc7b4f1aU, 0x3c3540e7bcaefc90U, 0xbc864da93bd56b3dU,
  0x3b8b7455bbbcc3b8U, 0x3ced8297bd1c5b04U, 0x3d03075e3cc8c824U, 0xbce7890c3c83a2a5U,
  0xbd0d8120bbbd2e10U, 0xbb59d5cabc233b63U, 0x3cae8ea7bca66492U, 0xbcd567073ccb8651U,
  0x3d0876b7bc6d0ac6U, 0xbd10f62b3cd20e87U, 0xbc8f388d3b890fd8U, 0x3ad4b66cbcabaf0eU,
  0x3c3a0adbbcf87c86U, 0xbd0d0bc5bd144f96U, 0x3bcd6c9c3c86cc67U, 0xbb910f64bc2628f0U,
  0xbcdbf668bd010677U, 0xbc569a733c2ef8d6U, 0x3d05e78ebbc2b070U, 0xbd0a79de3b8b10faU,
  0xbd0f1994bd2459a7U, 0xbc6383d3bc0796c5U, 0x3cb2c4ddbd13d279U, 0xbcb4c9cbbd2b46b3U,
  0xbcbd04d7bc53a8a1U, 0xbc3ffa9b3c627cbeU, 0x3cbb2d113936c032U, 0xbc050f38bcc0e397U,
  0xbce3ef143cf850d4U, 0xbcd4aa1cbd2eff2cU, 0xbcfd3606bd094b2aU, 0xbd3b69533acfa904U,
  0x3cdb61dd3c568e40U, 0xbc8fa1eebd3e3701U, 0xbcb7a378bd09051eU, 0xbca34a2fbc8c630dU,
  0xbcead8c2bd2ba591U, 0xbb613b863c7430ebU, 0xbd3293b5bd33860eU, 0xbd0809533cdd5bdaU,
  0x3ccac1fdbc7a7a54U, 0xbcbad04f3c6479fdU, 0xbd288c6dbbbec269U, 0xbd3fa5d1bc83906aU,
  0x3c98c2233a1b1d9eU, 0xbc1fbf6dbce54f63U, 0xbd32383f3cd258b3U, 0x3c1f69bf3c82813cU,
  0xbc67e3a5bbf6b169U, 0x3b61d790bc15ae1dU, 0xbcceec94bc149857U, 0xbcb4d84d3c8711d4U,
  0x3b2f3dd83c20e920U, 0xbd53fb24bcbe8180U, 0xba204c5b3b87d4c2U, 0x3c80192dbd538d8eU,
  0xbbf1777ebc5ba29bU, 0x3c915adebd194da8U, 0xbd472f60bc8ea960U, 0xbd2d47c13c57fac7U,
  0x3c0f2935bd4655ddU, 0x3c337de23bb168a0U, 0xbb1bb70c3c57609aU, 0xbd456db6bd5dc46bU,
  0xbd24dfe0bd42977cU, 0xbd3d9609bd568abdU, 0xbd4c46b8bce9852fU, 0x3bfcfcf7bd0d17e2U,
  0xbbd03dca3af11a95U, 0xbd1c143ebbef880dU, 0xbbf8c8c3bd3db487U, 0x3b1c8d5bbc9e694cU,
  0xbd65809dbb0520d4U, 0xbcb8acdebce06729U, 0xbcdf1c21bd417a24U, 0x3c4aedd3bd015aacU,
  0xbd006cd9bc093160U, 0xbcd0809dba299e47U, 0xbc6add0ebd0b1686U, 0xbce0abdbbd3e99b7U,
  0xbcf6061bbc147ff6U, 0xbccfe5f3bb03267dU, 0xba0fa6e6bd3bf75aU, 0xbb1f8fb93ca406f0U,
  0x3c2739bcbd287e15U, 0xbcdb88d9bd23305dU, 0x3c5b4935bd47dc04U, 0xbcef8e19bd3541f5U,
  0xbd48bd43bbea50beU, 0x36deea7bbce102afU, 0xbd3300c33cc0cee1U, 0xb9791b32bcb7b84cU,
  0xbcd0faee3c90a6bdU, 0xbd325fc9bcda2152U, 0x3cb4a66fbc65344aU, 0xbc2c2294bbb79525U,
  0x3ab6d480bcd1fb18U, 0xbcda1b2fbca24f7fU, 0xbd2dbde93c693ce9U, 0xbcc882fabd162722U,
  0xbce42712bcc191bbU, 0x3cf3785ebc74c766U, 0xbcb54b0ebcb0b81aU, 0xbcd75f35bb517604U,
  0xbc819dffbc379d09U, 0xbc100749bc844412U, 0x3c41179a3ccb4b1aU, 0xbcfa5c9239d91b0eU,
  0xbd34add5bd17be47U, 0x3a2b4df0bcbd26e3U, 0xbc30b8ea3c3055cbU, 0xbcde165abc9598beU,
  0xbd206cdabb60e02cU, 0x3bac8ed6bd12b63aU, 0x3afd67ae3c9c6c3eU, 0xbcb18d8ebd2067cdU,
  0x3c24d025bba190f1U, 0xbd07e3aabca85d02U, 0xbbb16ed1bd1b0502U, 0x3cfc889cbcb1fce6U,
  0xbc5210be3c60d25cU, 0xbc0aa200bc908455U, 0x3cc63447bd2313a6U, 0x3b1897623c961bcdU,
  0xbce18c5c3be0f01dU, 0xbd08b2b8bcbdca30U, 0xba3d1cd83c47436fU, 0x3cf74e68bc9e39b0U,
  0x3cc5524c3c753140U, 0x3c1fe811bceec7d6U, 0xbc142cd9bc607304U, 0xbd1b54e6bc7f0dc0U,
  0xbd1570ec3ccfe33bU, 0x3a066f453cddd1adU, 0xbd172a43bd1881c4U, 0xbcb9beab3a4b059cU,
  0x3d103db5bbc49d35U, 0x3d04582d3c5f7afdU, 0xbcbba332bcfe83a6U, 0xbcdf5e4c3cd8726eU,
  0xbc93380bbd13e747U, 0x3d106403bcae9a86U, 0xbcdc7ed43c717bd0U, 0xbce56ec73adb5120U,
  0x3ca6f9213cb90845U, 0x3cc144c3bd134e49U, 0x3caf0c27bc9e58ffU, 0xbbcf3a153ce169deU,
  0xbb7019d1bd22fff4U, 0xbd1dad64bc086424U, 0xbd0e0768bc6b9636U, 0xbce490543cc1c571U,
  0x3d080a22bc8f980aU, 0xbc4a0d003c3cd86aU, 0xbce5e4cabce2c52eU, 0xbb8b2336bc8c2ab1U,
  0x3caf4c983cef4565U, 0x3cf505e1bc45fe41U, 0x3ac878e6bc0e7487U, 0xbc90a35a3c3aaef9U,
  0x3c020f19bcf70b64U, 0xbd0db61abd102956U, 0x3c2b8447bcbc73bdU, 0xbb9973b63bdcdcd5U,
  0xbc4ff9cc3bd6c5e0U, 0xbce672813bfb6974U, 0x3bfdf720bc27e483U, 0xbd1b01b0bcfc04f2U,
  0x3c8794553d025e46U, 0xbd0d781fbc407f0aU, 0xbcf98312bc886144U, 0xba147d7e3bf4a7bdU,
  0x3b7482ee3cac291fU, 0xbbd3a4d43ba977eeU, 0x3cd804613c5d1962U, 0xbd09e14f3c7aa931U,
  0xbd16cfc53d14b302U, 0xbcf49771bd1c91a4U, 0xbac3faa73c8e67deU, 0x3d0b5a443cdc0717U,
  0x3c2103f33baf217bU, 0x3c260f353cfd14acU, 0xbbfe691abc8cd9eaU, 0x3d01d0773b842657U,
  0x3c897f3dbada9f16U, 0x3a4932cd3aaa6d86U, 0x3b0b4e53bcc2bed6U, 0xbc29b50fbc524ccdU,
  0xbd31584fbd05f56cU, 0xbc730875bd2704fdU, 0xbd07c9e6bd1591eeU, 0xbd1cbca0bc8e5fe7U,
  0x3cdbfc173ac27c43U, 0x3c3fd422bcf9e8c0U, 0x38debdc7bcdf8f20U, 0x3c7043c2bc63d03bU,
  0xbd004d59bcc70ab4U, 0x3c19d4f3bce2d0aeU, 0xbd1a7ac0bc3281abU, 0x3d0c07afbce3a704U,
  0x3d0fab41bca32224U, 0xbd087471bc63183eU, 0xbcba050bbb87c437U, 0xbc751174bc3f5613U,
  0xbcd33133bce813d7U, 0x3cdcc447bc23f0a5U, 0xbc438c353cb26c03U, 0x3bcab3b43c229d65U,
  0xbc8d50bc3c99d1dfU, 0x3cb973153b932f97U, 0x3c544ebebcc48b9dU, 0x3d004c0fbd1adeb3U,
  0x3b958c123cf7f6d3U, 0x3d0092553c708f97U, 0xbc2261eebc5bfb3cU, 0x3c8e721fbcde2aaeU,
  0x3cf460d7b9d2b041U, 0x3ce3caa43c5a9de0U, 0xbbe65413bc92d0f8U, 0xbd18e8fe3be99c69U,
  0xbccf1c42bcdd36b4U, 0x3baea6f13c1fc023U, 0xbc7062163b9b47f1U, 0xbc4fd41abd031616U,
  0xbcc0915abbb6cc58U, 0xbabbb6acbc7dc03cU, 0xbbcdb3a93c81f057U, 0x3cd1d9cabb9daf14U,
  0xb9b8ddff3b848a15U, 0x3ba3ba70bd029a51U, 0xbc9cf5c6bc54237aU, 0xbc1d54c83c948eacU,
  0xbd0e08ba3c75554aU, 0xbd1388023ba23117U, 0x3cdc6f5aba13a59aU, 0xbc877c2fbc278ddaU,
  0xba654e3bba60fe7aU, 0x3ba30572bcbbd69cU, 0xbc3be90cbca358b0U, 0xbcb1cbb1bbe4afafU,
  0xbc9c2b36bc239bfcU, 0xbcf05ffd3cc2ad5dU, 0x3cf48b153c8559d1U, 0x3cd40e75bcab7526U,
  0x3ce46d8e3cddccbdU, 0x3ca4158abc1f32a1U, 0xbd19bb01bbbabe38U, 0x3cfba816bd124ce4U,
  0x3cd41bc7bbc61038U, 0xbc6b5c153cebe765U, 0xbc6846243c4754c5U, 0x3d186b153c8b04ccU,
  0x3c5af6a03d05fa0dU, 0xbc8e05923a184819U, 0x3d167b893cfac765U, 0x3cb311c6bd11cddaU,
  0xbb5e3787bc8c64c3U, 0x3c501f80bbbb1289U, 0xbbd486a5bc72e143U, 0x3d21274b3b5ce542U,
  0x3cd2835f3cd4d500U, 0x3cee3c1ababd5b22U, 0x3d1c913a3c317323U, 0x3cec07363d07e9d7U,
  0x3c9fc6d33c7d85fcU, 0xbd0b942b3d175895U, 0xbc2ae4e43cd85845U, 0x3c9d9731bd10fd40U,
  0x3d176715bcd54c70U, 0x3bc7c19f3c745cd0U, 0x3d231f803b0b7219U, 0x3c7bd5e8bbf57e49U,
  0xbc4f09523c879e01U, 0xbd0aee8c3c8959a6U, 0x3cf45a26bc9b37acU, 0x3d1000bfbcb5c1a7U,
  0x3c612a13bcaf25f8U, 0x3c16b2623c774077U, 0xbbbcb717bceb8ed5U, 0xbca2a461bc97dafdU,
  0x3cff3e4c3c1baa8bU, 0x3c4cb2723acff147U, 0x3d0c2611bcd235c9U, 0x3c869dbbb9e18726U,
  0x3c3ea6193c853e64U, 0xbce4b5aebba85e7fU, 0x3d1f4c0dbce84084U, 0xbaec290b3ce2018eU,
  0xbc5f4ce53cdad71eU, 0x3c9ba5ad3cf0c612U, 0xbb02eaeabcea145aU, 0x3d25545dbc60081aU,
  0xbc9ffd9abcbb279fU, 0x3ca74a6d3d2d9700U, 0x3bc549a3bcae1a1fU, 0x3c7be9ccbc31f7f1U,
  0xbc9d36b83c8605cdU, 0x3cc4f4673d2d3546U, 0xbc2da33abbc80472U, 0x3cf46772bcdc3803U,
  0xbc3f6304bce47dd0U, 0xbcf444213d24830aU, 0x3c6b420b3c75b792U, 0x3c8beb9abc2aacc3U,
  0x3b3740a73c2e92b7U, 0xbc4218e03cc22256U, 0x3b051b843c14f512U, 0x3c465ef6bcc49cbdU,
  0x3d3ad009bc77a0d2U, 0x3cf91b05bca115edU, 0x3cb931233c35ac3cU, 0x3c70b452bc96ad88U,
  0xbc786898bcb3b762U, 0x3d147228bcc9f043U, 0xba68fd633c3d10b7U, 0x3d5042aa3cd9b8adU,
  0x3c82f1efbcb6aeeaU, 0x3d528a733b9d082dU, 0xbcab46f33c010d33U, 0x3d5030783a8eebf9U,
  0x3d2cf3e23c23acffU, 0xbc968fde3cb0af8fU, 0x3d3f0b813d068f22U, 0x3b96eb0f3d66a8b4U,
  0x3ce26d363d6a90cbU, 0xbbe11664bc560700U, 0xbc10bd683c34bf7aU, 0x3cf4fff9bc2be0c1U,
  0x3b192ae33d6e01ceU, 0x3d4188953d1d26fbU, 0x3d72b17e3c653c44U, 0x3cf1fb8e3d135b8bU,
  0x3d6d63fe3b1ba47dU, 0x3c8ac4c53ca1a5d2U, 0x3cbcaf123cf90f3eU, 0x3cd08fabbc873c04U,
  0xbb886e3d3cbd9952U, 0x3d29b1e9bbf5e3caU, 0xbc3b5a873d3e43cbU, 0x3c9062f63d467e01U,
  0x3d0de811ba47ca9dU, 0x3c9fe162bc989667U, 0xbba0050cbc05bb90U, 0x3cdb9c69bc96da30U,
  0xbbe198d03cfd19baU, 0x3d4fcb563cc5398bU, 0x3d11db683caec7e2U, 0x3d4023b33c405fa3U,
  0x3d395c293c9fc97eU, 0x3c3d24ab3d3dbbd4U, 0xbc82cd3cbcc37bc2U, 0x3bc4879e3d36367eU,
  0xbc64d0973d0a72faU, 0x3cb12295bc5ecc17U, 0x3ca9b152bcd29b2eU, 0x3d0b74e5bb0a6a22U,
  0x3c57eaa93c3f99a2U, 0x3ae75ee1bc7cd421U, 0x3c557d703d227142U, 0x3c5464213ba8d086U,
  0xb94147053d2fb078U, 0x3d298ec93b1b75dfU, 0x3c93ef383b092a34U, 0xbc0d74de3d261ea3U,
  0x3d3b2d90bb69047fU, 0x3ca0e10dbbb6a400U, 0xbcf019813ce7d9cdU, 0xbcd022b33c04212fU,
  0xbcb27dd43c3647f1U, 0x3c9b0e753b8fb8e7U, 0x3ca3d4b83c4dc065U, 0x3d17b9943d34534aU,
  0x3d0549fdbc2a6aebU, 0xbb49f7a2bce2316bU, 0xbc4cb1703d02a46eU, 0x3c04e95e3bc623ecU,
  0x3cf9fbc73cc0561bU, 0x3d3536bdbc37121bU, 0x3d039a8a3a8da409U, 0xbcf243043ba4986cU,
  0x3d0728c1bce0565bU, 0xbcce77ba3d12d079U, 0x3c8a3de9bce9d35aU, 0x3d17cde7bb2aa58cU,
  0xbcb91f9ebd05d45cU, 0xbca6130ebb97a6bfU, 0xbbfe8502bc5ed6a2U, 0x3c455bd4bcac3d17U,
  0xbd063b28bd032dfdU, 0x3c73f2f63b90b7b2U, 0x3d251bcb3cec5e42U, 0xbbfc86173c745415U,
  0xbd097359bcd0d24dU, 0x3c1203af3caab54dU, 0xbbef0fbd3ca530d3U, 0x3c9d6a0d3b8720faU,
  0x3b99a28e3d20680fU, 0x3cb18808bc0822f9U, 0x3cbe0aaabc18f2efU, 0x3cf3fdc3bc71eef2U,
  0x3c1e0adbbbe7e4deU, 0xbd011655bc6f8dadU, 0x3c4ecf203c2c0ad5U, 0xbd085936bcf0bf41U,
  0x3d20a9ac3cebb385U, 0x3d0d55193c8a9282U, 0x3cb00264bcaa70e8U, 0xbca6b19dbbd8a49cU,
  0x3bfd00e43d1b447aU, 0xbcb8666abc7d0bf3U, 0x39aabb453c819af9U, 0x3a1bf50d3c94ffffU,
  0xbc6049b7bc55b2a5U, 0x3c241897babeb0baU, 0x3c8e1519bd027ebdU, 0x3cff7a243cced6d0U,
  0x3c07e5073ca8df8fU, 0x3d0f6a01bd0afe00U, 0xbc857c9c3c5f9efbU, 0xbd02fe183ce72112U,
  0x3bbeeedebc3d3cc2U, 0xbd0dfe3a3a1fa72bU, 0x3836ad67bcc2c364U, 0xbcb832753c518c08U,
  0x3a661a133d1c021dU, 0xbd0f28223b89e885U, 0xbcec7705bc9ad3edU, 0x3ccf728bbd075ceaU,
  0x3d065383bd03cfe9U, 0x3b662d2f3be323ffU, 0xbcd2bbd1bd012c2dU, 0x3d1b97dd3c8eee84U,
  0x3c65293dbc0576a1U, 0x3d1c9fa73c931ba4U, 0x3d1e08273cdfb3b0U, 0x3d150fd53ca0817eU,
  0x3d13093a3ca20049U, 0x3d320edabb15a4efU, 0xbcefde0c3c59975eU, 0xbca94ed13d1b12b3U,
  0xbcf31dabbcd9845fU, 0x3c02bf713a838fd1U, 0x3d2a22cabb9d054bU, 0x3cc38b0abce176bdU,
  0xbcceefdb3bb70acfU, 0x3bd878383d03d4daU, 0x3bdafcb93cd31d89U, 0x3cd40bd63d063973U,
  0x3c1a31103d1a9fbfU, 0x3a0ade94bc678af7U, 0xbca1b1b9bcacc2b9U, 0x3cb80aa5bc09c36eU,
  0x3b81d1eb3be115aaU, 0xbd083b9bbcda62cbU, 0x3d22ca783cce26fcU, 0x3d29fcf13c4d7774U,
  0x3d172bd7bca5e954U, 0x3d086ad7bc82a0bfU, 0x3c30cdf43be01769U, 0xbbfa4aa13cd0f2d7U,
  0x3a9e94dcbaddba84U, 0x3ced29183cf5bd2cU, 0x3d0ca89fbd0359f3U, 0x3d0a070e3c0dc378U,
  0xbb0bfb0fbcf97945U, 0xbce93aa93c0f3084U, 0xbbbf72e9bca01b09U, 0xbc8932453c32caa3U,
  0xbb9615453c396010U, 0xbd03e2383c91afa4U, 0xbd0ac998bcc5c2a5U, 0x3d26409cbc8c1698U,
  0x3c186d523c83170cU, 0xbc2bf0963c8f3107U, 0xbca74f8d3cf22d3bU, 0x3c01fefbbd0c4a06U,
  0x3d0f25283c3140a1U, 0x3c0ec054bd063ee8U, 0xbceef67b3ce9b8dbU, 0xbc9ccc82bb42e5f2U,
  0xbcef01483d1b0df5U, 0x3d11b90fbc9ce170U, 0xbcae5e543d12bcf3U, 0xbbf80a913ca705f0U,
  0x3c3590943ca5a306U, 0xbb62b142bcbb9ad6U, 0xbc7165db3b81378aU, 0xbcd533dd3cb192d2U,
  0xbcb34c57bcbf8524U, 0xbd041b37bcf13d7bU, 0xbca70245bcaa1ed7U, 0xbc561cd5bc80f4c1U,
  0x3c5769893beece97U, 0x3ccd328fbc7bed83U, 0x3cfc5c0dbcf081cfU, 0x3c377aa9bc9512b2U,
  0xbc86ab76bcabf4a5U, 0x3ce570743cf6860bU, 0x3ce396ad3cb8778bU, 0xbc7086f5bc12db0fU,
  0x3bed46e63ce9c343U, 0x3cd574cfbd03c29cU, 0x3b0b957bbbfb5605U, 0x3c30c73e3d010380U,
  0x3bbcd68dbd17b549U, 0x3c8c75963c193ed9U, 0xbc42f308bcc7a3ecU, 0xbcb6368e3bdb0499U,
  0x3c93d0a0bcee6e44U, 0xbc8987f7bd19c2dbU, 0x3bf4f6283d03d19cU, 0xbd151c413b6add0eU,
  0xbca11631bc9f1ad0U, 0xbc7333303c71eb51U, 0xbb221ea1bca50615U, 0xbbcbf66a3cece3fcU,
  0xbccaa5a1bc54079bU, 0x3cd98935bcc2bad6U, 0xbc9cf8213bd95b29U, 0x3bc1c6d8bca3e45aU,
  0xbd16fbcabcf7d83aU, 0x3ba82c213cf248d1U, 0x3d043136bd12f8aaU, 0xbd01f3933ce62203U,
  0xbce3318bbd21eeccU, 0xbcc917a0bcedb910U, 0xbd1649113c356e40U, 0xbce81661bd1862cbU,
  0x3cb1bebcbc77567cU, 0x3b49b818bc69f362U, 0xbc8d3e7d3b43fe84U, 0x3d0df889bb63e0b7U,
  0x3cbbf89f3c085d30U, 0x3cfe6fbcba2f8ee5U, 0x3b09facf3d0ba2c9U, 0xbb0bf37ebb401d6aU,
  0x3cc15b0fbd0b7ff4U, 0x3ccaad3d3d07c520U, 0xbcc11c193c4feb58U, 0xbce644073b92dd55U,
  0xbd24690abb35d5a2U, 0x3cb7b7c6bcf733e8U, 0x3bb74c2ebb43b721U, 0xbc484c31bc9d70f7U,
  0xbcfd8c18bcf81024U, 0x3b98a34b3ccd317cU, 0x3c99c10cbd031585U, 0xbc2a16a73b58222bU,
  0xbcbc2561bb8f0923U, 0xbbceeabc3c94584fU, 0xbcc6ba9dbd11ed3aU, 0xbc3ea1f1bbfdfc41U,
  0xbcea08fdbca9cb2bU, 0x3cea3174bd08431cU, 0x3ce5133fbccb4513U, 0xbba74d2d3bce2cabU,
  0xbc374a723cb1f5d9U, 0xbd035d4bbd0e34a4U, 0x3ccefae3bca2360eU, 0xbc90a36fbbe98989U,
  0x393d3942bd1b5674U, 0xbc5f38623cba94f7U, 0xbd4443f63c1ae3daU, 0xbd0247ddbcb7b129U,
  0x3c458418bd13282cU, 0x3c84b3a83c987c27U, 0xbd495778bb51bb23U, 0xbd270dfa3c276081U,
  0xbd3b8f243cc91673U, 0xbc222e64bcca5ef0U, 0x3c1ada9cbc7639f5U, 0xbc89967e3c256be4U,
  0x3b84d3733a5883e0U, 0xbd2e7688bd4e7e4bU, 0xbcea4fdcbca2e790U, 0xbc460bcfbbba34a7U,
  0xbcebdf84bc549b27U, 0x3aa31b0dbd15255cU, 0xbd4f791e3c79cd1dU, 0xbd4d46ebbd352d39U,
  0xbb182316bd33bc51U, 0x398130a9bd51cc77U, 0xbbabe826bbaac962U, 0xb98223033c047faeU,
  0xbc880211bd65cc0aU, 0xbd71bb7bbbe99b0eU, 0xbd4d5f0abc747a63U, 0xbd265744bbb26ed6U,
  0x3c68fae6bab7fdc2U, 0xbc8072c8bce3eaa6U, 0xbd2d04abbd30f8b6U, 0xbceb8a37bca513e8U,
  0xbcc5368d3b1092afU, 0xbc81af11bba754fdU, 0xbcd38958b93b1f8dU, 0xbd1bee3e3c52f86fU,
  0xbbb13a5e3c67c53bU, 0x3c3edb2cbd027705U, 0xbba5e353bd5808ccU, 0x3bcd1eca3ca82eb4U,
  0x3cc41a66bd3c12fdU, 0xbcfa25eebd1c08f8U, 0xbc617f81bb395878U, 0x3afe419fbc8d1f16U,
  0xbc1f00af3c33ad54U, 0xbd0958ebbc67bf78U, 0xbbea0f1ebb108b50U, 0xbcd49e7cbc473fa3U,
  0xbc05e0023c3eb177U, 0xbd022c00bd450eeeU, 0x3ba584dc3be61428U, 0xbd282c33bc61a8beU,
  0xbcda0fae3c25b3d9U, 0x3c92f15ebc378058U, 0xbd265fd43c9631e6U, 0x3ce530263c3a08f6U,
  0xbd39a127bd20fdffU, 0xbc851e51bc9538ebU, 0xbc4d488d3c6a8456U, 0xbc67b89dbc8dcf48U,
  0x3c3896d0bc14b845U, 0xbd07a0663c3c3cc9U, 0xbca7904cbc948b07U, 0x3c77e6443c0fec19U,
  0xbc37362f3cf02096U, 0xbb155ff7bcba20d8U, 0xbcd0494d3b475f3cU, 0xbcd32bedbc07ce69U,
  0xbcb82dac3c595b26U, 0x3bedfceabd20530eU, 0xbbd3bd313cd30d7eU, 0x3c3e309dbcc2d821U,
  0x3c58a064bca2d637U, 0x3c9e553d3ca6a293U, 0xbd10a120bbf523faU, 0xbc6a4cd53c551315U,
  0xbc9dfeb0bce2e881U, 0x3b0655363cc57750U, 0x3cdd59013a6e6a1eU, 0xbca6b54abc9e08e3U,
  0x3c7737533c07a8b9U, 0x3acc3e563c13f37cU, 0x3cefd656bc88b8c2U, 0x3bc19493bc913190U,
  0xbd287d1d3bfe7953U, 0xbc807b063c72090dU, 0xbd17053dbbe83da9U, 0xbc91a6a23c4e7e71U,
  0xbd25ae0c3cd5f588U, 0x3d04f870bcf9ca28U, 0x3c66f29fbcb0af0aU, 0xbcb51ab4bbcd0552U,
  0xbc247e3fbd16f48bU, 0x3c81cb1dbd212d5cU, 0xbb268e90bce78205U, 0x386ad1553c89c878U,
  0x3ce85105bbb8badeU, 0xbd0f698bbd19943bU, 0xbcfb671cbbbfa768U, 0xbc3fe3b2bbe8e0bbU,
  0xbba1b188bbe821a7U, 0x3c207bebbcc4bc87U, 0xbcaff971bcfca45bU, 0xbbcfe8e43d00e6b0U,
  0xbc99475739e71f25U, 0xbcc836b23ca65fb9U, 0xbb03ea2abb2dbbf8U, 0x3c417dd13cbc2e57U,
  0xbc0a3319bbc4eae8U, 0x3c922b9bbcc8a7ebU, 0xbd262309bd0bd7b9U, 0x3d022a10bbd6703aU,
  0x3c0819ee3cce6b4bU, 0xbc9b1f423ce34bbfU, 0x3d10b6f53caaf780U, 0xbc8c10593ad56c69U,
  0xbd16f98fbd0e4a6aU, 0xbd1047823b48842bU, 0xbd00d76fbceb4489U, 0x3c8c11d13bb20fbfU,
  0xbb8bf7483c85aeb5U, 0x3d05199a3cac976cU, 0x3ca4f1d3bc47dcb2U, 0x3cd93c2d3bdd0b50U,
  0xbcfeed553caabfc7U, 0x3cadc4e7bc4285fbU, 0xbbc4ea4b3c9424faU, 0x3caafe7dbbcc2c84U,
  0x3ce2e6263c36524eU, 0x3c8b8f4e3ce6d622U, 0xbbec8ea13c1ce5bdU, 0xbd04fee63c31e9b0U,
  0xbcd02fd23a57b0dfU, 0x3c0cdfefbca63a98U, 0xbd1fd8ebbd2b5947U, 0xbd02060c3cf84e3fU,
  0x3cd3ae04bd038a75U, 0xbb6da356bcea602fU, 0xbd0a1ccebd2cd946U, 0xbc2ed07cbd01517dU,
  0x3cddf135bc82adfaU, 0x3c902ea53cc17886U, 0xbcc2bd21bd30a531U, 0xbcf4b5683c6e3795U,
  0xbce0404ebd17d2caU, 0xbc936fcf3cb3f154U, 0xbd1f18f8bd26c5f0U, 0x3c34d6ef3cfe5040U,
  0x3c11ffa6bc8292b0U, 0xbd25768c3bb99875U, 0xbd1b38b3b9f1b970U, 0xbcd25107bb6eb604U,
  0x3b0a952abce3d538U, 0xbc974b0b3c9b5e6eU, 0xbcab68fcbcf058e1U, 0x3c3474513ccb1541U,
  0x3c5a2391bd1fd52cU, 0x3cbf0ae4bd111169U, 0xbc46b35f3c89592cU, 0xbc0289783c8421abU,
  0xbcf04bc6bc680383U, 0xbd105fb5bbf5edd9U, 0xbb48ad743c6931daU, 0x3c351ed2bd203b56U,
  0xbc8a11cf3d119b3eU, 0xbd0bcd363c4b6174U, 0x3a3657cd3cd69294U, 0x3d151368bb32baa4U,
  0xbd173197bcd5405dU, 0xbc3168ee3cb45e7fU, 0x39893a923b9e61caU, 0xbd1e3491bbe56420U,
  0xbccb2638bcfbabd5U, 0x3caf10433c8f690aU, 0xbcda240e3a5b9fe4U, 0xbcabcb073cbbcd5eU,
  0x3c5178a8bc4f8b74U, 0x3d05bd71bcdac140U, 0xbcbbb0023bdea560U, 0xbcbeafc93d046965U,
  0x3ca551963c42e59cU, 0x3c547d41bc9c95c4U, 0xbd0d05ec3c72db8bU, 0x3ca0bb17bcca304aU,
  0x3be5a3363ccbea79U, 0x3ca78c023c96a3f5U, 0xbc3c4fb1bca36c3dU, 0x3c982c03bcdaec07U,
  0x3b2e2a063cd97216U, 0xbc9725f3baedc3c1U, 0xbca9af863cdb7900U, 0x3ca1e9b6bca1f2c6U,
  0x3c87d2f7bcc0b27eU, 0x3cba2542bc4c4f3fU, 0x3c960e9f3ca64d94U, 0x3cd16597bceb6c87U,
  0x3cd435bbbcac1536U, 0x3b8588bf3bba20c1U, 0x3cc7aa9dbbac27f6U, 0xbcaab99c3cfacc89U,
  0xbc8d8cbcbcef0e2fU, 0x3c25d8253b2e2fa3U, 0xbbd39680bcb69629U, 0xbd1530ea3c6ce82cU,
  0x3cb2fa5dbc95e043U, 0x3cbca094bb913b9bU, 0xbcc948673bbddcb0U, 0xbcb4bdf2bb203f64U,
  0x3ce2c4e9bcb4cb32U, 0x3d10729cbc80160aU, 0xbd04a7013cecf2f1U, 0x3c597dbdbca02fbbU,
  0xbcccac94bbc38ab4U, 0xbce71bdebd0b7b06U, 0x3cd8e9f83c4ebfc2U, 0x3d0353b23cf105e2U,
  0xbc9b12783cadd05cU, 0x3c90f5ea39025f5bU, 0xbcbacd4c3bef1d67U, 0xbcd0c26a3d0ae5c4U,
  0xbc6a8f0a3d15fd44U, 0x3ca779acbcfe828dU, 0x3c524a353c4ce17aU, 0xb9b7ebc1bcfb8bd1U,
  0x3cd24985b98beb71U, 0x3cac0d54bb8676a4U, 0x3b2729663d155c93U, 0xbcabcddcbc77550eU,
  0xbc69936dbc318fabU, 0x3bda74d9bcf13cebU, 0x3c01b6013b93f788U, 0x3cf6aabdbc95ca03U,
  0xbcedbd343d0fd314U, 0x3c5ded82bbec6826U, 0xbc0a8c833ce480daU, 0x3c215ff33d0bda0fU,
  0x3d12b8d23c98a480U, 0xbcc658643d164a5dU, 0xbbc1aba33cfc600fU, 0xbcff00c53bbb16edU,
  0xbc6b7ded3c795b94U, 0xba4da19aba9387b1U, 0x3cdd08e23cd1c928U, 0x3c674abdbcf8e3bbU,
  0xbcc3ea963cd54cf0U, 0x3d10777abca8a9a9U, 0xbc102dde3b236511U, 0x3ca9bb073d0529aeU,
  0xbc4d233d3d1d8dd0U, 0xbbfe8c5dbc366bcdU, 0xbabd40c83d1b8f10U, 0xbc8345173b8f4ec9U,
  0x3caa90023b106c03U, 0x3c35b4a4bc7fbef2U, 0x3d1a3ced3c92b070U, 0x3c18dbcc3d0ff3c6U,
  0x3ce4c6ce3bb371e3U, 0x3b8dcfe63d2a64a5U, 0xbcc078223d2ed359U, 0x3cc3a3c03c270c69U,
  0x3ca866f43b94e71cU, 0x3c961c8abcda5a8fU, 0xbc15bf7bbb7972a7U, 0x3c1058e0ba6cbe1fU,
  0x3c95a3cf3c7e466aU, 0xbbc4012ebc3f398fU, 0xbc5e1cb5bc135e39U, 0x3c9d58af3d4ddc04U,
  0xb9bc0e6abc1aa5e8U, 0x3a0fc7c03ca3c9bcU, 0x3ce87d453c5e72b3U, 0x3ceb317d3b44d98eU,
  0x3cdc81363d3b5539U, 0x3d690bfa3c4eae3eU, 0x3cc644093c54040dU, 0x3d2368f63a41c3b8U,
  0xba83a6fa3be020c2U, 0xbd168733bc5f76acU, 0xbc785f5abcf3502cU, 0x3c3d7496bd1ffe8dU,
  0x3cd832193cff9b65U, 0x3c7cfb18bc8feb85U, 0x3cd23cf7bccd06b0U, 0xbc9064883cc9fc71U,
  0xbcfcaf313cb85896U, 0xbcef10acbd0c9ab5U, 0xbca674e5bd15c751U, 0xbc85cdc3bc60bafaU,
  0xbc25b9c2bd0e3c4cU, 0xbc597275bbc06facU, 0x398b4b51bc77b66bU, 0x3cd6fdc23ce3e068U,
  0x3ca7f3f9bd11fbb0U, 0x3d0b36c23ae816d7U, 0x3cae924ebc7e22b3U, 0x3cb4562c3d0e7223U,
  0x3c463e77bb3f8b60U, 0xbd0af3c83c73dac6U, 0xbc9eb698bc3f8868U, 0x3ba3c21d3c21fa2dU,
  0x3c08f0bcbc20edb5U, 0x3beaf168bcd6f68eU, 0x3c817f4ebd0036ccU, 0x3cd326be3cfbe813U,
  0x3bd52196bcaa2b90U, 0x3d29bbcd3c09d77cU, 0x39cacd2f3d2f4be6U, 0xbb9a56c43d3962ceU,
  0xbc94d2b83a8f4488U, 0xb81e870cbcace70cU, 0x3d09979a3d0a3eb3U, 0x3d0d849439f4ce86U,
  0xbcdd025bbab9432dU, 0x3c94611f3baa37baU, 0x3d08a13d3c26b991U, 0x3c849c0abca3153aU,
  0xbc5549963a21aaf3U, 0x3ad0683cbc981abfU, 0xbd0323bcbceb81f6U, 0xbb77ba0b3d0ad3adU,
  0x3cced2713b254aa0U, 0x3d09f373bacd9cdeU, 0xbc0f423ebcec25f5U, 0xbcf21b153cd6fbbeU,
  0x3c5e091dbacb6bcdU, 0xbc4450ae3a6efec1U, 0xbc825a1cbd0cfec6U, 0xbd094afbbc8761d0U,
  0x3cd8d83dbd07f16aU, 0x3ca5c7e7bc92663bU, 0x3c9bd7f4bcc089d2U, 0x3c9f27263b2f7e11U,
  0xbcc63978bcbe2c68U, 0xbc116eef3d01a52bU, 0x3be9e35a3cf6e958U, 0xbcc6c1583cd96957U,
  0x3cd467ea3bcc1603U, 0xbca9e165bc3bbac2U, 0xbbf915773c8e51bcU, 0xbc3f45b1bc9d6333U,
  0xbd0416883c4907dbU, 0xbbd1426c3c1bf203U, 0x3c83e2963d0ebadaU, 0x3c77df01bc05db08U,
  0x3cee1be4bc44dd2eU, 0xbc631adbbc7119bcU, 0x3ce7cc18bc5d5eadU, 0xbba0f76e3cdbb828U,
  0x3c216579bc36e0ebU, 0x3c20ba7fbd057269U, 0xbcc8a4a83d11b382U, 0xbce1ebe4bce73f22U,
  0xbcf970e5ba9f5c07U, 0xbc15f8c03c5cd269U, 0x3be2b3c13cfd89e0U, 0x3d0c4960ba36dac4U,
  0xbbb105013ca4954bU, 0x3bc754213cdc67e3U, 0x3c18e96f3cf81c55U, 0xbccb124dbadda5e8U,
  0x3cb1ef37bcf46a5cU, 0x3d1afe70bd164092U, 0x3d0837b03c4339b6U, 0xbcbfa7b93c364c9cU,
  0x3d00a2783cb780c3U, 0xbd1b4ebc3bf362cdU, 0x3c5c797e3cb66730U, 0x39aa9f953d0486bfU,
  0xbc1b0024bc2ae3e8U, 0xbd20c87dbb110708U, 0x3cad8086bc679d0dU, 0x3c5dea18bd203c6eU,
  0x3ae1b9273c0eadb2U, 0x3cc9ad89bc975eafU, 0x3a20a48dbcadf008U, 0xbd1afc55bac0378aU,
  0xbc319d27bb0315c3U, 0x3a08f85fbcfda1cfU, 0xbcb6f27cbcc25e36U, 0xbd2748cd3ca93d39U,
  0x3cd8681f3c297779U, 0xbc03de15ba891e9fU, 0xbc844200bd0a71e3U, 0xbd103250bd1f290aU,
  0xbd0b7ff9bc7feeb4U, 0x3c729a0a3c766393U, 0xbc5a94d83c753f27U, 0xbcaf78f13bcc38b3U,
  0xbd2a52c1bb5e4ff7U, 0x3c8876e53c3a058cU, 0x3cca8a613cd6b98aU, 0xbc78abcb3cb6875bU,
  0xbc9692ae3bccaee0U, 0x3be3455f3abe2d6aU, 0x3d0787babbeb77b8U, 0x3cbbf5e23c809f46U,
  0xbbd70f38bcf780afU, 0x3ceca5393c5dc67bU, 0x3c883e103c03ec24U, 0xbd10f54d3b89a747U,
  0x3c3726b4bb610fc0U, 0xbd1383203aa2d9ecU, 0x3d0f3e76bc9d4c00U, 0xbd0933213ae472ceU,
  0xbc7246fdbcb7f05bU, 0x3cb315273d031cecU, 0x3c1407d3bd063318U, 0x3cad97153d11cfdaU,
  0x3cfff788bcd8042dU, 0xbcc081cfbc9d3d6cU, 0xbcbbc1633c5eff0fU, 0x3d1f3762bd02d1deU,
  0x3c692760bcadeaa1U, 0x3c86f1d7bca093f8U, 0xbca2dcaf3b389992U, 0xbcba9063bca64019U,
  0x3d10d87e3c860ee1U, 0x3c7e3f36bc9bbfadU, 0xba5b5d4e3c835915U, 0xbc9a18d63d22d8cfU,
  0xbcafae58bd0caadbU, 0xbc311b28bca98f19U, 0xbca751043ad26632U, 0xbcf1fa233c4b82b1U,
  0x3cb4c01f3c8d7cdcU, 0x3ce9c854bc80b31cU, 0xbcd1b4a5bc998024U, 0x3d0af15ebc9df2b1U,
  0x3d24ae0c3d15daf5U, 0xbc9bf0e43c41c328U, 0xbc82250a3b358972U, 0x3a764cbe3d2005a5U,
  0xbc86dbbb3d027674U, 0xbc83142abc77a851U, 0xbcb62df93ca541a2U, 0xbc4bdeb93c3e80f0U,
  0x3d007426bd04835cU, 0x3a780fa53cf005cdU, 0xbc929d7e3c12dcb1U, 0x3ba2752dbaf4f377U,
  0x3c64959cbbab0f7cU, 0xbab08ee33d243a42U, 0x3d0dadae3cb2b559U, 0xbcfff1d83d14df4aU,
  0x3c87e212bc81617aU, 0x3cee2d61bcb76614U, 0xbc892d0b3d105c38U, 0xbc9752ea3cfdd391U,
  0xbcd6fa23bccee7baU, 0x3d04e44b3a2d8327U, 0x3ce6df0cbc7fd92fU, 0x3c8be38ebd0097a2U,
  0x3c63823cbccc5f30U, 0x3bf19ee6bc84b44bU, 0x3b0394003ba5fd85U, 0x3d0ace42bd09f6c9U,
  0x3b8d8bfdbc120c3fU, 0x3c6424cebbe7b8ebU, 0xbc901980bd111a7fU, 0x3c4d4f713c853bbdU,
  0xbc90e97c3d23d3b4U, 0xbad514cfbcafe880U, 0x3d08a68e3c4719b3U, 0x3b2dfbc33c31dc16U,
  0xbcd2adca3cf142b4U, 0x3d06a9703cf34b61U, 0x3b8a9bcd3cd68b6cU, 0x3ca0660cbd08e353U,
  0xbc0e26b9bbfc97fcU, 0x3d0f17fabcd880c8U, 0x3cd3d645bcaf04f2U, 0x3c1493f9bc8c153eU,
  0x3bb5d06fbcf5532eU, 0x3bf3d60b3d059570U, 0xbcb87adc3d063c2fU, 0x3cfe2c1fbd06a22fU,
  0xbd0c676a3bd8f912U, 0xbca456cf3cc795a0U, 0x3c19e5253c22c232U, 0xbbdc52f1bc8c46a6U,
  0x3c50db303d051f0dU, 0xbca8fc35bca977a8U, 0xbd00124d3c61933cU, 0x3b8429b03c832fb4U,
  0xbc021b5bbd0afb49U, 0xbc4886953c75f9dbU, 0xbaf84c303ba711c1U, 0x3d04f4c73b16a6cbU,
  0xbcb07b853c7aafd3U, 0xbb9d38903bed096bU, 0xbd28ee42bd00276aU, 0xbc6aed93bcc024a0U,
  0xbcdb818a3caffc4aU, 0xbbd82576bca07281U, 0xbca96b79bd1aff8aU, 0x3b128426bae77e56U,
  0x3c7d44533c9680c6U, 0x3ccc3de4bbc4c301U, 0xbc7d27d43cd00b6bU, 0x3c1884753a516781U,
  0xbc0aa8203c907982U, 0xbca170e63a51a71bU, 0xbca8d0383b9b75d6U, 0x3ccebc73bbafaf04U,
  0xbce29b5d3ca20baaU, 0xbcd196293d0a40e2U, 0x3d134d05bc8329f0U, 0xbccfbb15bcd52e31U,
  0x3d265b0d3cd6d1a6U, 0xbcffb2b1bcec3de5U, 0xbcb9b7723c64f673U, 0xbd0cd4febce1e8fdU,
  0xbcc0f9f2bc78a8c3U, 0xbbda5b223d1277bbU, 0x3c30f2683c2176b3U, 0x3d168d02bc9f1c9aU,
  0x3ca2e918baccdda4U, 0xbc7b09323be9ba00U, 0xbcc5584d3cdc1287U, 0xbcf42876bcba5e18U,
  0xbc7c79d1bbad7741U, 0xbbc6ecfb3d13795fU, 0xbc2cda7c3c9f5dcaU, 0xbc66b3183c89adc2U,
  0x3ce0528ebcbcada9U, 0x3bbbde573d0cbaa5U, 0xbc0cab23bd05532aU, 0x3d2e06d53d1599c1U,
  0xbce86e3d3d27fd66U, 0x3c8d4bcbbbcda97bU, 0x3d0b59d63c6932d0U, 0x3cc151eebc0057efU,
  0x3c4e0ca63c20a109U, 0xbcbf4c243cbc0c9eU, 0xbc7a5cb33d1a9a80U, 0xbbe93eae3baef49dU,
  0x3cdb55bebd1750c4U, 0x3d0ad9d73ccf61d6U, 0xbc4952f23cbd378cU, 0xbd0737b83d092482U,
  0x3ba4a791bcb95cccU, 0x3c8970e63cd8e3ccU, 0x3cd4b66fbb9d077dU, 0x3c61f4dd3d1bf374U,
  0xbc9a5c623aab7b63U, 0xbc188c7cbc985733U, 0x3c626bfdbcbb429fU, 0xbc88748c3d0cf6a6U,
  0xbcafbb38bcb1e2e7U, 0xbc00fcb1bc0197a5U, 0xbc7f04fe3c2f3421U, 0x3ce2047d3cc89940U,
  0xbc9428ecbbdae0bfU, 0x3af3a8aebbbe1bd1U, 0xbd1af2843cb216c4U, 0xbbc3a63cbac5d5d6U,
  0xbccb6b463c99fb02U, 0xbc25ffa7bcb3245dU, 0xbc499aa3bd0d0987U, 0xbcf1f340bd0146f1U,
  0xbd16a537bd1a5249U, 0xbcfe66fa3c84060cU, 0xbbb765283bb0ad1fU, 0x3b7e0845bc6f3c53U,
  0x3ce43015bc05301eU, 0x3cd959e5bbe03238U, 0xbd0e96fe3bf29386U, 0x3a1518ddbd079eeeU,
  0xbc97afaabd0e1fdeU, 0x3c2ddfe3bd0aa697U, 0x3d05bca7bd02303bU, 0xbd16d10f3cf97d72U,
  0x3cb1ecd7bd1e8d88U, 0xbca77b673ce87287U, 0xbcc65a253c71028cU, 0x3d042fb63cdb11a9U,
  0xbb6f3623bce39293U, 0xbcf4109fbb72c77aU, 0x3ca65d72bc717c47U, 0x3c72b4b63afd9cddU,
  0xbccce6cf3c96d99fU, 0xba7aee373cd866bbU, 0xbd19ca6abbdc1caeU, 0xbcac18463c48bf58U,
  0x3c816cac3c492667U, 0x3c0d56f03c17d414U, 0x3a95c45f3c1e34e6U, 0xbbb282663cce335eU,
  0x3b0835e73d0a8348U, 0xbc590c4cbd123fcaU, 0x3bc554f13d094fc5U, 0xbc87d11a3c02f98aU,
  0xbc5580acbd0a50d3U, 0xbca32b65bd1d252fU, 0x3cb35df33c8fdec3U, 0x3d0214723b7fe05fU,
  0x3c71be14bd1eb098U, 0x3c80f26e3d0912d4U, 0x3a140a30bcbc9042U, 0xbd0c51503c013a0aU,
  0xbd20039b3c778cd9U, 0xbcebe4d73bcfa0f7U, 0xba69fdf0bc6f849fU, 0xbd1bd1a63c5ce57fU,
  0x3ceb64f5bcc048a6U, 0xbc03ed3dbc92a2c0U, 0x3c1892723ceeb8edU, 0xbc688176bc6691caU,
  0x3cd78c0e3b95d58dU, 0x3c40fef4bbcfe69dU, 0xbc2620ab3c590daeU, 0xbba81fe4bc8c9181U,
  0xbcb75b1e3bb753c1U, 0xbc6f2593bcfc8ccdU, 0x3cf741513d033101U, 0xbc0389c03ca44d04U,
  0x3cd96be63c993e91U, 0xbd1c7aea3cfc9564U, 0xbc8324e3bce2084fU, 0xbd28e72bbc13b711U,
  0x3c1399493c5be173U, 0x3cb50d52bc62be97U, 0x3b8eccb73cf8e1edU, 0x3c7d53ffbcaa818aU,
  0xbb396172bd25f119U, 0xbd07af753c384761U, 0x3c40ac0ebc827471U, 0xbd292133bd243c49U,
  0xbcdc80e0bc0ed918U, 0x3ca61e94bc7fcc46U, 0x3cd25d9fbc985385U, 0xbce0967ebc328ee2U,
  0xbd0ae4473b4dc6a5U, 0xbc518a633cef173aU, 0x3c063b73bcde542dU, 0xbc75fa973cb34c1cU,
  0xbbd9ff873ce5ef54U, 0x3cd14836bae8a621U, 0xbd0d1f943a9c8745U, 0xbc7d5e4dbcb57073U,
  0x3d07d69d3cfb76a1U, 0x3b52425bbd09e981U, 0xbc1fff863c9301dbU, 0x3cb8f958bc8830fdU,
  0x3ba494ae3cf96726U, 0x3bb66fc5bcbc6749U, 0x3d0b0d9dbc095f30U, 0x3cce15b83c5d33e5U,
  0xbcacd1703d043a1bU, 0x3ccfb0b7bba59292U, 0xbca915ad3cb64663U, 0xbc3531a13d038be2U,
  0xbcd931c0bcab6749U, 0x3c278f3bbce66b14U, 0x3c5478eabb2c98d6U, 0x3d0bc3c2bd23d499U,
  0x3bb65e33bbe73c0cU, 0x3cf6ca75bbf8985fU, 0xbd207b553ce9fcb2U, 0x3c22c2283b925651U,
  0xbc0c1707bc132f2fU, 0xba148bc1bc40980cU, 0x3c255bb5bcdc8183U, 0xbcec71853cea387bU,
  0xbbf8003a3cd665ecU, 0x3c02e7623c21964bU, 0xbcd2a1b13cbbaeb9U, 0x3c7edb623cc74887U,
  0x3c1844d83bc292b5U, 0x3c93209a3c4d9697U, 0x3cebadd0bcee498aU, 0x3cc0e74fbc1d89c3U,
  0x3ca74432ba7c74b7U, 0x3c828c593c26fa36U, 0x3c1c328ebba8d8eaU, 0x3d0789653cc154ddU,
  0x3cbb08fe3b986b15U, 0x3c778f8f3cc2dff7U, 0xbccb32a93c0f02bfU, 0xbd1b6f06bae397a5U,
  0x3cf98b2c3ca3b001U, 0x3c8450f23ce12ce6U, 0x3a635bc1bd183981U, 0xbcb7a31b3b06163dU,
  0x3cd69b0e3cf88dc5U, 0x3bd8c787bcee09b9U, 0x39e1032d3cd30231U, 0xbcf376b1bd20453bU,
  0xbc0a8ab73cdaf506U, 0xbb4321eabca56142U, 0x3c87917cb9efab4bU, 0xbd10773ebc7eb24aU,
  0xbc38023dbcae171dU, 0xbc20a45ebb0729d1U, 0xbc344639bcf2f445U, 0x3bf618b53c1923bcU,
  0xbd12eda73ccf36f4U, 0xbc1681adbb3a155fU, 0x3c356cf33c993b2bU, 0x3ce5431dbc45c66eU,
  0xbc8784da3cdfc3d9U, 0xbd140890bd0954e6U, 0x3ca09b973d0b2700U, 0x3be48610bc883b50U,
  0xbc8a2ba1bc7328e7U, 0xbc8ea168bce07e83U, 0x3c9e167a3b3f905fU, 0xbc02b0db3bb730ecU,
  0xbb5fcc8f3c630ba4U, 0xbbfd5251bd0fb911U, 0xbd1a14d03bbb053dU, 0xbc31bc72bc90578dU,
  0xbcb86beebd204742U, 0xbd1bff6cbd051849U, 0xbd0080e63c60f473U, 0xbce833b33cbf6760U,
  0x3cfafde8bd03fbe7U, 0xbcd07a66bcb17f54U, 0xbcf125973a49f526U, 0xbcb195c3bd251adfU,
  0xbc2ddbeabc05e47eU, 0x3b32e4eebc98d441U, 0xbbd17f753cc3c593U, 0x3a919de73cae9ce6U,
  0x3cb72f9dbcdfdc85U, 0x3c0529b0bc8582a5U, 0x3c19390b3acd36daU, 0x3d053454bb3700bbU,
  0xbd20cb413c6909fcU, 0x3cf411313cd10177U, 0xbcb5d85fbb76d06aU, 0xbbe6547c3ceede76U,
  0x3cb3bbc3bb4aec08U, 0xbcddc44f3c4125e1U, 0xbc8f26c63b17a6d9U, 0x3d014042bc66b90aU,
  0x3a636f903ca1c33cU, 0xbcf4ab133c6d87b8U, 0x3cde7910bd2b9616U, 0x3a05e31e3ce4b5a3U,
  0x3cc2d3bc3cc19cb7U, 0x3b7660d13cb35254U, 0x3d035ea2bd044680U, 0xbcd3dd2dbd1b7947U,
  0xbc8d3173bcc5f58dU, 0x3d0b2e4d3b337681U, 0xbc33c1de3ca121eaU, 0xbc25018e3c280c47U,
  0x3c95bfa6bce5ae32U, 0x3cfb0bcd3ce5e4d4U, 0x3c8e96a3bc02052eU, 0xbc840e113c469161U,
  0xbc8ff5c13c284318U, 0x3cd32230bc6bb2d0U, 0x3c6b89df3a48c5c8U, 0xbc8fd2903c01f94eU,
  0xbab76579bb7e6035U, 0xbd1ff6b9bc5736b8U, 0xbc49599e3cc2141aU, 0xbd286db1bbb111eaU,
  0xbd02318d3c40e657U, 0xbd09b9663c99e4a1U, 0x3cbbbdecbd1c3f3dU, 0x3bdef36dbcede0b7U,
  0xbcf9c56f3d0af812U, 0x3c09efeebc5505e9U, 0x3c82aedfbc1ce21fU, 0xbbff58c13cad8943U,
  0xbcb8dfe03cfcc329U, 0x3d02e851bd21cf1bU, 0xbd20adb0bcfce7f9U, 0xbb487b1a3c064f61U,
  0x3c13c6c53be2987eU, 0xbcce0aedbca96e8dU, 0xbb2e859dbd0b7557U, 0x3c947cf23c6471d8U,
  0xbd21aeca3b7adae9U, 0xbccf07eabcd05ad0U, 0xbc791936bc165c01U, 0xbbc1dcafbd046e36U,
  0xbd282176bc9bb9aaU, 0xbcb37c59bcea1199U, 0x3ceb22cfbce6a103U, 0xbc10917c3ab8917aU,
  0xbcc79975bbc4b8c2U, 0xbcad601b3b8bd5c7U, 0xbb65911fbd1a7f1eU, 0xbd06d101bbc09157U,
  0x3cb8c546bccd215bU, 0x3a37fd56bd14177fU, 0x3d4082303c03e140U, 0x3c5f1ffa3cfcf8adU,
  0x3d0864c73ce32584U, 0x3ce0a4cb3d2536aeU, 0x3d897c403c0713dfU, 0x3b3b58f23d1140fdU,
  0xbbd3df473d87332fU, 0x3d1343653d49e1aaU, 0x3cd4ba373bef44abU, 0x3d4615743ca67036U,
  0x3d19afa0bbdcdd19U, 0x3d48bc873cdf4fd8U, 0x3d53301a3cfe6aefU, 0x3b887f8c3cb500e5U,
  0x3b93ae48bb0ccaf9U, 0x3d1cbee53c5367d0U, 0xbcb4411b3cda1de0U, 0x3c56dfb33b91c3d6U,
  0x3d4706a53c67a3b6U, 0x3d36e5193d048f52U, 0xbca75812bcd0f7d2U, 0xba67e3973ccad1f9U,
  0xbca09facbc902d0eU, 0x3c9b99443d09c58eU, 0x3d1a238f3d307fe4U, 0x3cadb0533d062313U,
  0x3d4d7c123d4679ccU, 0xbcc1cdaa3cab7354U, 0xbc52a6aa3cfd10c0U, 0x3c3c74cd3c9061c7U,
  0x3d3b51153c88b412U, 0x3c56d5a0bc1744beU, 0xbc0c9b21bbe10095U, 0x3c793c2f3cf29001U,
  0xbc32d23b3d445fcbU, 0x3c5248723ce8e8f3U, 0xbc1f6228bbc33a97U, 0x3d0cd1843ceacde5U,
  0x3cbbbb93bc72ae37U, 0xbc86a44cbbe21004U, 0x3cc5c19d3d0eaa64U, 0x382be39cbcbb4246U,
  0x3bf6a4dbbc8f36bbU, 0xbc88c5b83ce81ff4U, 0xbaa99bbe3c106182U, 0x3c5cc5103c3f8775U,
  0x3cca25513d121b35U, 0x3b2b87323cbe2d95U, 0x3d0e800a3c9a416bU, 0xbc3ef5513d0370d5U,
  0xbcbe720f3d167b36U, 0x3c66aa113b842aabU, 0x3d3fa8803d3c81e5U, 0x3c8ffe753d36d047U,
  0x3c995b3b3d2db902U, 0x3b8a2a2e3c8cb452U, 0x3c0954b6bbf25f71U, 0xbc0c8f323d4febfbU,
  0x3cac3fadbc4cb895U, 0xbc9a6f633d1fcc5fU, 0x3d3a3fab3ca7ce43U, 0x3c7e5ee63c3d9567U,
  0x3c1018de3d0b38b4U, 0x3c21090eba5dfe21U, 0xbc18ae4b3b598b11U, 0x3d0486ba3c8ce058U,
  0xbb328992bc0b9f6eU, 0x3a9608903be44c27U, 0x3d067030bc9f20bbU, 0xbc8937eabccb697bU,
  0x3a7b3ba93ca924b8U, 0x3d12948bbc096a7cU, 0x3bd982123cc56dc8U, 0xbcd75ab83c497cdcU,
  0xbcd8514f3c4aa4ddU, 0x3d17e6523d103658U, 0xbc48c44a3cf023abU, 0x3c7886223cfec9d2U,
  0xbc3cbf0f3cdb6f0bU, 0x3cd1f5883ca83c18U, 0xbcc494f23d2b6896U, 0x3b6d9edfbc1ceeceU,
  0x3cc4b46d3bcc8e23U, 0x3d24b587bbf50de8U, 0x3ccfe1babc682f21U, 0x3bf0c6f23d281adeU,
  0x3cdfeae13ce252faU, 0xbc86c43bbc788e3cU, 0xbbae008b3d00fe8dU, 0x3ba95fb93bbe6d08U,
  0x3d3cb6713c03a5a3U, 0xbcc7ab503d30131fU, 0x3c89bf6d3d0affaaU, 0x3cc36c12bb07ec66U,
  0xbb5aa8993c62e081U, 0xbcc49825bc86743cU, 0xbcead6e43d1acea7U, 0xbcefcf2e3c5de116U,
  0x3cd5cb8f3d0ca56bU, 0x3c969f91bcacf053U, 0x3c9ab6ad3d20243bU, 0x3d255c2a3d26bc2dU,
  0x3d31fb173d3841a7U, 0x3ca3947b3cc1ed0cU, 0x3c919f7abc4dadeaU, 0x3d1c5abe3d08c59eU,
  0x3bde0171bc99db32U, 0x3d2cbb6d3d196ad5U, 0x3b00e6bc3cba9efcU, 0xbc9244163c04463eU,
  0xbb74eabe3ce83041U, 0x3cd3752ebcb0b21eU, 0x3c88ee1f3d461cf2U, 0x3cc559043d3df250U,
  0xbc42ef703b8d62deU, 0x3d0b14963d3e59b9U, 0x3d09ef7c3ce6be76U, 0xbca894fc3bc2360aU,
  0xba50d074bc4060e2U, 0x3d3d275a3c62dc40U, 0xbc258d233c2c7748U, 0xbcdc5b483ca5a630U,
  0xbbdcf75b3c79beb5U, 0x3ce30492bcb03f56U, 0xbcdc1bf73d3ba279U, 0x3ce4c77d3c5fcdf4U,
  0xbb253b51bc8559a4U, 0xbb5097d83c9f941aU, 0x39b3feb0bcb8575fU, 0xbc5bf767bc80c5aeU,
  0xbcf28ca4bc328e8fU, 0xbcd24fa73bb223e5U, 0xbbec1fd03d17c51eU, 0x3d29cbf53d346d0dU,
  0x3d2d57603ca34cc3U, 0x3cd3fc8d3cfc0a82U, 0x3d37746e3d067d7aU, 0xbcdc30ca3c99e0ceU,
  0xbb6d51a73c1b8aceU, 0xbc5dc5b03d2667cbU, 0xbbeb2151bcce5085U, 0xbc5b541fbc88ccbcU,
  0x3cd90c5b3ba8bdfdU, 0x3d2dd0443d2cdeb2U, 0xbc3c3d6e3d38996fU, 0x3b390a643bfbfaafU,
  0xb947c0ee3ca8b995U, 0xbb3f2fb23d0405f1U, 0x3d18293f3ced52bfU, 0x3d0991703d1b2f8dU,
  0xbc6478c73cebd447U, 0xbbc6e1b13d06b2ceU, 0x3c7dfa8c3d3a026fU, 0x3c59fb2a3badadfaU,
  0xb9a8f6a63c9a75ccU, 0xbcc8fa82ba08172fU, 0x3d060ca13cb1a8deU, 0xbc21d36b3d266b19U,
  0x3c7ec9313c025ba1U, 0x3c9e5044bbff6fa1U, 0x3c0c6a66babb88abU, 0x3cabfc7a3d3dc014U,
  0xbcc158fa3cca8d3cU, 0xbcd4ae44bc122221U, 0x3d4066023d235eacU, 0xbc230c76bc79fc15U,
  0x3cd6decebbc155ceU, 0x3d4120013cb4fa47U, 0xba48471c3d167997U, 0x3ccf4a3dbca55e46U,
  0x3d341007bce62703U, 0x3d1137c93d2c465fU, 0x3d0988e4bc3d7984U, 0x3af7f2233c5a523aU,
  0x3cc3938d3d4544e1U, 0x3d02e4b33d24e706U, 0x3d3f47ff3c1e6993U, 0x3d434604bc945553U,
  0xbcb08eba3d14f95eU, 0xbba806bf3cb54b48U, 0x3c7dcd103b61ed1dU, 0x3d182a133d2b6374U,
  0xbbbebd953ac33ae1U, 0x3d004d733d440ba7U, 0x3ce485333d21e914U, 0xbc8c2fc1bc8b94e2U,
  0x3d1068213c803896U, 0xbc8324acbcab5e54U, 0xbc9b092abcac1559U, 0x3d34828ebc9af79aU,
  0x3d1df44bbc383f05U, 0x3d2520c53d0eb9a2U, 0xbad5b49a3ca53d84U, 0xbba62ae93d484b71U,
  0x3cdce7afbc955d82U, 0xbbae84b93d05bf04U, 0xbb9693ad3c65ce8aU, 0x3cc486b0bc81a9b8U,
  0x3caae2593b286f16U, 0xb83afd223d56589eU, 0xbc21559e3d04a2e0U, 0xbc96fc833cf4f7e2U,
  0x3bded5083ce8f10dU, 0x3c9d209d3c4f9e64U, 0xbbd26860bc390285U, 0x3d232233bbdfeccbU,
  0xbc62da7cbb3d5ce4U, 0x3caf90b03d0eb4d9U, 0xbc1f87723ac9df08U, 0xbc7fb31d3ccefb19U,
  0xbb70fbc7ba8e58aaU, 0x3d4ab6d43c9ead7aU, 0x3b888f513cb6dd63U, 0x3cfad74b3d394467U,
  0xbb97aad43956f315U, 0xbc7c10babc3d0e97U, 0x3c1e89613d667480U, 0x3d52d26e3cb310a9U,
  0x3d57817e3d0ea335U, 0x3d5303de3c03926dU, 0x3d2c6b5b3cf48533U, 0xbb24cecfbc44c149U,
  0x3d03d7f53d592d84U, 0x3d2c22423d74913cU, 0xbc40e6883caf57e9U, 0x3cf3b55b3c5e8770U,
  0x3ceba95e3d58e984U, 0xbb96d5c63d33be16U, 0x3ce259363cdc452dU, 0x3d684df53cd91a5cU,
  0x3d2c7fc93d4e24afU, 0x3d4908cd3d304f0cU, 0x3c6ab191bb130f08U, 0x3d0a9a8d3c96589cU,
  0xbb45ce873d2caf1aU, 0x3ca646b33d3e9123U, 0x3d0d71cb3c5eee79U, 0x3d815c893d006fe1U,
  0x3bed1d503bcc8852U, 0x3c059cb43d47b171U, 0x3c1113d43cce64d3U, 0x3c096660ba17e28cU,
  0x3cc13f053d161570U, 0xba8967db3d8d7b1cU, 0x3d41e3973d6b7b27U, 0x3cc272dbbb020610U,
  0x3ca9e1a83d0a1e68U, 0x3d81a4d63d694100U, 0x3d92bf593c8c8c07U, 0x3b4dd1df3d5b5a7dU,
  0x3d0e0ca03c505968U, 0x3d8999da3d4d5c64U, 0x3d948b703cf0da42U, 0x3d955b443d911607U,
  0x3c857b903da043b7U, 0x3cbcd4e83d943762U, 0x3d97bf833d4d4a84U, 0x3d858f773d9aff0cU,
  0x3d92d2d73d08e5c9U, 0x3d8161003c62e158U, 0x3d8eac443ba9de4bU, 0x3d4357efb9dda932U,
  0x3c55c40e3cddc081U, 0x3bb72b8bbaf50d80U, 0x3d4ccb0b3d04905bU, 0x3c000c123bbe727bU,
  0x3d53160a3b15db72U, 0x3b94efce3b9190a5U, 0x3d5c179c3d0b28bcU, 0xbc71b9a3bc335624U,
  0x3b4691363c3040ffU, 0x3c11c8313ced6d41U, 0x3d1300e13d5dee4fU, 0x3cf120183d496ca9U,
  0x3d4ac29dbb25f194U, 0x3d2cb3bebc30d811U, 0x3ca98a783cdd7795U, 0x3c17ae113c9273a3U,
  0xba69e75b3c73c0cfU, 0x3bf0f77b3bfdc5a7U, 0x3cfc5bfb3c014a3dU, 0xbc6abdd1bbd0c213U,
  0xbc9c24a43ce34dbaU, 0x3cd59ccbbc39de63U, 0xbc352a023cb0a299U, 0xbc14a11c3aadcb48U,
  0x3ce43020bc6573cbU, 0x3d24f3c5bb2178a5U, 0xbcdb5e763bfea252U, 0xbcf039efbc9518cdU,
  0x3d10f1fdbcc7dccaU, 0x3d3c18193d203c77U, 0x3ca00acbbbb5a64dU, 0x3b70b4e93d33e120U,
  0xbc5389333b3891cbU, 0xbca18a18bb99a022U, 0x3c395fef3d2305cdU, 0x3c33eacbbc7e1027U,
  0xbc8c805e3b8fd3aaU, 0xb9e34828bc1e953fU, 0xbc832281bbd0e189U, 0x3d188cfbbc5827d0U,
  0x3cf17cbcbcf5247cU, 0x3cff65983bd92042U, 0x3b856281bcc04a6dU, 0x3bb4ff8b3cb5bd21U,
  0x3cb56b98bcde1a96U, 0x3cd1025dbc3894feU, 0xbc73fb833cbc54b2U, 0x3cf84d743b56e2e8U,
  0x3c879cb33d03d2eaU, 0x3c069a77bc9079d1U, 0xbcc59b933ca89cedU, 0x3d26f1413d27db15U,
  0xbccb26093a2b21a7U, 0x3d0f82cdbcf70a2fU, 0x3cc815593ca83f01U, 0xbcb3bf153d0c10e6U,
  0xbc6b3ac33d1ef718U, 0xbc759b75bc32fccaU, 0x3d1a0e07bc8d496eU, 0x3c9034093b7b481aU,
  0x3b82e36138537555U, 0xbcaa2144bd0bb828U, 0x3c6fa377ba9209a2U, 0xb84e65013cb63d95U,
  0xbcb478ef3c960c3bU, 0x3a77f726bcf606a0U, 0x3ce280e1bc55b33fU, 0x3d15736abc7e5261U,
  0x3b8624ebbc25ea5aU, 0x3aae142e3cf8ebacU, 0xbbf687b6bceaa60cU, 0xbcc1322bbccdcd2dU,
  0xbb42c1903cad6cedU, 0xbd048e88bc0dc7cbU, 0x3d1f181e3cbecd12U, 0xbb95d80f3c939fe1U,
  0xbbf3ce49bc7dfd29U, 0xbbfdd2853d0651c6U, 0x3d0951503d23cc61U, 0x3d054c513ca9775eU,
  0x3d06cae3bcd6301aU, 0xbb640a30bd0dcb17U, 0xbae7b003bcedfea5U, 0x3ca75185bc113bb1U,
  0x3cc007e3bc9ddccaU, 0xbcfe20b73cb4cae3U, 0x3d0d5740bba0da19U, 0x3c2e0df63cd674f0U,
  0xbc92cff23ba41b66U, 0x3aececd2bcac9192U, 0x3cc9ba313c5686c4U, 0xbcf39ee2bcbeb36fU,
  0x3ce4e5093c416e99U, 0x3c2ca39e3c8fe698U, 0x3cfd08f73bb16576U, 0xbc40ac23bc170829U,
  0x3d07ffdf3c095b35U, 0x3c7cd8303bbc482cU, 0xbcff750bbd2094f2U, 0xbc445f31bbd1002dU,
  0x3cfee9ccbd04f7f6U, 0xbc3d23a7bc8e7618U, 0xbbf29e1e3d090a4fU, 0xbca56529bc4f3a35U,
  0x3d019a3fbd06aeb2U, 0xbd1a8befbd0787b7U, 0x3cb4f009bcbd9e3bU, 0xbc51e47d3b70d042U,
  0x3cfa0109bccbe7c4U, 0xbbf9cad53bb71214U, 0xbb54bfa4bcc8c624U, 0xbd118f0e3cf7ec3eU,
  0x3cabbef73d0ec583U, 0xbcc001f63bcf104dU, 0x3c6d732fba825a21U, 0x3ca8d5a4bc9123dcU,
  0xbd0005a83cfdf1e5U, 0x3d0bfd5cbcba78faU, 0x3cc5408b3ce9706aU, 0xbc1324edbb157ca6U,
  0x3bac89b93c834b21U, 0xbc879f0bbc00fbaaU, 0xbc9742af3c1a5010U, 0xbc3500173b3dbfc2U,
  0x3c21692b3c5e8c21U, 0x3c54f11ebcdb3ca5U, 0x3baa80c7baaf7f7bU, 0xbd22f6fd3cc09addU,
  0x3c3cb9a1bbcd4dcfU, 0xbca81aca3bccf905U, 0xbc612ee23cc48b2cU, 0x3c739dc3bd048f17U,
  0xbce4fc143c25a6d9U, 0xbd025e2ebc9ab010U, 0x3c2ddcefbd04cd72U, 0xbcbee5df3ca08d7eU,
  0x3cffdc1cbb202e7aU, 0xbcac0bdbbba16b28U, 0x3d0f54bdbcaa2268U, 0x3d07f1b7bd029d7eU,
  0x3d0ca15a3caa9609U, 0x3c817d9a3bdc0961U, 0x3b4958583d142329U, 0xbcd6bbc93b2e1bacU,
  0x3cc72a093ce3f8eaU, 0x3c1356b33d1502f1U, 0x3ce2e1ffbc173647U, 0x3c61ef61bc2c6d0aU,
  0xbd038068bd0b561fU, 0xbc1ddea33cf3b1f9U, 0xbc756a31bd041757U, 0x3c94b4d63c35a2f7U,
  0x3c105675bd02820aU, 0x3ca21fb43d05899bU, 0x3bf2f05c3c456f54U, 0x3c5d544ab9883fe0U,
  0xbd03544ebc6f022fU, 0x3c87dd263b96e13fU, 0xbba4fbb33becb637U, 0xbc8dc09a3c7ddf6fU,
  0x3d118a683cc11595U, 0xbd0605cd3b333855U, 0xb91418513b7118a9U, 0x3c9f1c55bcbc7c3fU,
  0xbd00cce3bc8e1629U, 0x3aa435f03cc4e661U, 0xbc4dc3fe3d160553U, 0xbb321c0b3cf0ec0aU,
  0xbcea70d03ca8e796U, 0xbce038fbbc79b808U, 0xbbe33597bca2e5d2U, 0xbbc5fd36bc3dfca3U,
  0x3c060dc8bccded3fU, 0x3b62d39abbfcee15U, 0x3c2c25adbcbc8252U, 0x3d0b05d03a301756U,
  0x3c6184f53c468dabU, 0xbaef5ba1bc84ff2cU, 0x3c765bb83d060e23U, 0xbba5cd043c0bd892U,
  0xbd0a185ebd13b205U, 0x3c0ee30b3d00080fU, 0xbcb329733cc02196U, 0xbcb58ae7bcda8bc3U,
  0x3cd5d561bd14f620U, 0xbc8380c73c647cf9U, 0x3c0b3e2c3c818ef8U, 0xbbd25af5bc852badU,
  0xbba8c3d5bce52ee7U, 0xbd26803dbcd81e0dU, 0xbd2667f7bc8d4dfeU, 0xbd32002b3c67709aU,
  0xbc8e857a3c947a40U, 0x3ce1c2883c5c0110U, 0xbc17f2bc3bd30093U, 0xbd0c0a1d3d004beeU,
  0xbc041d2cbbf08f61U, 0xbd179ac13b8acf75U, 0xbc8199673cf8e528U, 0x3c33dc85bce04709U,
  0xbcf728293ba0b245U, 0x3c108803bd2e006bU, 0xbd20997dbc2bbdf5U, 0xbcaff216bc372a45U,
  0xbc00c2a6bc9ad73bU, 0xbcf8bfcdbaaf9492U, 0xbd37a02bbb11820fU, 0xbc0c21a2bd41c801U,
  0xbd3aaab4bce33487U, 0xbd130efbbc56c79eU, 0x3c8e281fbd07dba6U, 0xbd19fb743c901732U,
  0x3c520fedbb95eb19U, 0xbc5c32c3bd142b9cU, 0x3c6bc54ebc09f044U, 0x3b9e24f9bb995885U,
  0xbaa0d183bc5df1a5U, 0xbd1540dbbb5643f8U, 0x3c750a09bab20218U, 0x3b853e83bd006161U,
  0x3caf2f733b8d1a52U, 0xbd08bdb4bc059216U, 0xbcf7ab733c766ba2U, 0xbbd91e9bbd4fc816U,
  0x3c609f52bd3be093U, 0xbc96dcbb3c008b55U, 0xbd06bcda3c3fd284U, 0xbd4c9ba43c7344e1U,
  0xbd550f59bc26a3fdU, 0xbc7ff282bc5dcb2eU, 0xbcc014163c6cb260U, 0xbd41f410bcf7ed51U,
  0x3c31ecd8bd58cf1fU, 0xbc624f45bc151974U, 0xbd4e788cbd4db578U, 0xbcc4bf13bcf95e93U,
  0xbcd96281bc940f56U, 0xbce61230bc5e3dc4U, 0xbd3292843899be74U, 0xbcc148a7bce16006U,
  0xbd635af6bcf0b419U, 0xbd48232bbd396af5U, 0xbbef8766bd81b78bU, 0xbd855805bd871c67U,
  0xbd8016d1bc0e52ddU, 0xbc8c4bfdbd0a2a9dU, 0xbd992a01bd1b8655U, 0xbd8f73afbb43d5d8U,
  0xbd191815bd5bb74cU, 0xbccd4caebd9353f4U, 0xbcb63920bcd62739U, 0xbd313ebbbcd75895U,
  0xbc685cbfbd68c782U, 0xbb1b3a60bd2075d7U, 0xbce55bd8bb93f1b6U, 0xbd926052bd4c7644U,
  0xbd384126bc5778a5U, 0xbc9752cfbc91cec0U, 0xbd774c4fbcca75ceU, 0xbcc32539bd89d729U,
  0xbc0904d6bc6c47f3U, 0xbd035550bc73cb34U, 0xbd6dd64b3bd79371U, 0x3b166211bd6ec62dU,
  0xbd17005dbd5b470dU, 0xbc7107b4bd051413U, 0x3c004c02bc554295U, 0xbcdfb999bd7f7199U,
  0xbd0bfb6a3ac966c4U, 0xbd54eb87bcc91482U, 0xbce2909d3c1d1daaU, 0xbd528eadbd1580a3U,
  0xbacdc48fbd4b675fU, 0x3c74b4edbd78a708U, 0xbce38a7cbc485ca0U, 0x3c2406e83af32a4eU,
  0xbd15cbe6baecad39U, 0xbd3728dfbc9290ceU, 0xbd32f4d1bd0e0ab0U, 0x3b2ab02abb05598aU,
  0xbd165a3cbc89c9e4U, 0xbc28d6723bf137caU, 0xbc8334ff3bb5988aU, 0xbd3d0d2cbb31899fU,
  0xbcc21140bd16d912U, 0xbd22824cbb0b98d2U, 0xbca7f3bbbbe518a3U, 0x3c61a495bd5a96a8U,
  0xbd08b11a3ca40c52U, 0xbd5f8882bb84152aU, 0xbcecbe2ebcb929a0U, 0xbb36039fbb6f4feeU,
  0x3c8127b6bc437f2eU, 0xbd31321b3bb0ee71U, 0xba3883ecbd1ade4fU, 0xbbb132c7bc0f6260U,
  0x3ac19d42bd222575U, 0x3ca02d1f3b31e1deU, 0xbb9645bfbcc40824U, 0xbd3e6f3cbcc266b1U,
  0xbc8e23eabbe71812U, 0xbcb47ae3bba74e69U, 0x3c8c9b3a3b864e0fU, 0x3acba9553a906d17U,
  0x3bd68522bc4033f9U, 0x3c8b935fbd25f2c1U, 0x3caf8d7b3c9dc763U, 0x3c8b57f7bcf74790U,
  0x3bb553dabd14d841U, 0xbd27107e3a8a9122U, 0x3b915ab1bcb443a4U, 0xbd4390613c500a50U,
  0xbc7615bc3b322c4dU, 0xbc80ce9cbcb99932U, 0xbd394bf73a908550U, 0x3b9373f3baf8c401U,
  0xbb1ba56d3c09cc65U, 0xbd1f5b1ebcb7b0b1U, 0x3c641e40bd11d30aU, 0xbd2fab8ebd01736dU,
  0xbd3f5e6cbc2fea9cU, 0xbd1506b8bd2674a9U, 0x3cc84daa3c852352U, 0xbb8991533c683262U,
  0x3c2569c6bcd73747U, 0xbca1eb943b08dfc8U, 0xbca7098a3c8bd6a5U, 0xbd3515433bbc6960U,
  0xbbb409abbc6300ecU, 0xbcc66d8cbb8a4287U, 0xbc6815dcbc5abc36U, 0x3cadd288bd27c5deU,
  0x3c8c90223cbb709dU, 0xbb240c203a6c1ee0U, 0xbcf454b83c1e1f05U, 0x3c9acb08bc484416U,
  0x3ce1a435bc93ec04U, 0xb945d1eebc8eb355U, 0xbc540095bccbdbd5U, 0xbce6b8fdbb81eb1eU,
  0xba936130bcdd95f4U, 0xbd1ef3b23c70444eU, 0x3b7c79b4bd23e2b6U, 0x3aead3a9bc73f3a2U,
  0x3c60764cbcd18264U, 0xbd067ce9bc33282cU, 0xbd21a6aa3c1ce96eU, 0xbcd4d5713c9b5782U,
  0xba1846743cb5fcd1U, 0xbd37b7453c6818e3U, 0x3ca18bb7bd18fd83U, 0xbcca2ba83cbd857fU,
  0xbd38f5d9bccbb2ebU, 0xbaee06823be9584cU, 0x3bb59dfabcc7acc1U, 0x3b831437bd0d1848U,
  0xbc0938f13ce71904U, 0x3ac3208c3c5a274bU, 0x3cc427413b4b387aU, 0x3c9f4953bd1d293bU,
  0x3891163fbbdfda7eU, 0x3c0978703c976899U, 0xbca3ad693cd43460U, 0x3c9ee11c3b5b04daU,
  0x3c4b8e343c374d94U, 0x3d0503d13c4e1bc0U, 0x3b8c6eb6bcb032bcU, 0xbd1add623cd2f366U,
  0x3c955985bcecacbeU, 0x3cf87ac03cde1ec1U, 0x3ca75b83bcffe7deU, 0xbc31bf4abc1ee927U,
  0xbd02017cbc09c7f2U, 0x3cb9e4e33d0b2a5bU, 0xbd29b8a0bd2cc548U, 0x3d024c083c15600dU,
  0xbd1f890c3b65af87U, 0xbc452ee8bcb3c07bU, 0xbd0cd5febd13bd0bU, 0xbc5138353bd05a52U,
  0xbb9db4873ca67a3aU, 0x3c1515273cc908e9U, 0x3c4cac6cbd1a12fdU, 0x3bb19dca3d012b00U,
  0x3c9f72533cf26661U, 0x3be3fdc33cda4c1bU, 0x3cfedc343c302066U, 0xbcea6691bd2816afU,
  0x3ad9e07c3cdf1cc3U, 0x3c926d263ac8cc93U, 0xbd279d583ce505bdU, 0xbc13b5cd3cdfeed3U,
  0x3ca1bc093b091b13U, 0x3c38c91cbc306ce3U, 0x3cb5d7523c7d67a6U, 0x3c02d55c3cb97945U,
  0x3c5369bf3d12e0e3U, 0xbcee398dbcff73a0U, 0x3ce3e3473d1076e3U, 0x3cbd589ebd1fd6acU,
  0x3cca01f53c97d7d2U, 0xbcfbf2cf3c1d1c5bU, 0xbbc597d4bce761fcU, 0xbce579963c229aa5U,
  0xbce7f6a3bce7c856U, 0x3d047d1fbd0748d3U, 0xbc789de33ca10b1cU, 0x3bcbc17abc75390aU,
  0x3ce4560ebcca9308U, 0xbccbf1c93d0b3b56U, 0xbcb27393bc4ad88bU, 0x3cd8d913bcd5c816U,
  0xbd1a362ebd131da7U, 0x3cce8670bd0cb557U, 0xbcc3d094bd04fcc9U, 0x3c75df96bb0cdc08U,
  0x3cfffe9cbd0a3df2U, 0x3cc6492ebccf5233U, 0xbccd1b76bc5c538aU, 0x3c74e4a53bbf73c3U,
  0x3b6477933a8dc246U, 0xbd1eb921bd002a76U, 0x39bf03113d0b9e54U, 0xbcf9d8163cf00097U,
  0x3d0152c4bbb957f6U, 0xbaf376263c78720aU, 0xbcbc74843c6b1a4bU, 0x3b46cc513ce4594dU,
  0xbc16ffd03cb5ca0fU, 0x3ba78a6f3c870dc2U, 0xbc2fe8cfbc3baad8U, 0x39e819e3bca9f4bcU,
  0xbcada538bce4b1adU, 0xbc830efdbb9af1c2U, 0x3c2d4e723ba53329U, 0xbcc49f59bc12bf74U,
  0xbaa7f2213cf15af7U, 0x3d0d391f3c845872U, 0x3d226bc63a8c2d67U, 0xbd0b7fac3ced3a22U,
  0x3cd697013d09b4a2U, 0xbcdfc8a13c20f63eU, 0xbcab8393bb05a72eU, 0xbc6c5a923c540738U,
  0x3d0c2d72bb94bfbdU, 0xbba3d1433cbcf4ceU, 0xbcd7c6cdbcd94dcbU, 0xbc5fd5183c8eeceeU,
  0x3cffc1bc3bf6f37fU, 0xbcc7fd7bbcb82928U, 0xbb7d0b8fbcc67256U, 0x3ca572c53c395b98U,
  0xbc54dd1a3ca9ba81U, 0xbc76cb37bbf886bcU, 0x3cb31fcd3c337183U, 0x3be0a6643bbb7bbeU,
  0x3bf0e0a93d036fa2U, 0x3d3871603d011913U, 0xbc85bc633c08f593U, 0x3c367aff3a02a435U,
  0x3cafdc02bc3cfe37U, 0x3c637ba1bcb4ea50U, 0x3d0494443d069f80U, 0x3d4e38e23cb5ffdaU,
  0x3ce2b71a3c07c18dU, 0x3d1db91ebcab943fU, 0x3d4638d63c3434eaU, 0xbcafc13d3c9fa669U,
  0xbc99c5133d0ff26fU, 0x3d1c5cebbb05cfe2U, 0xbc5d3d743c6c2b19U, 0x3d26744d3bae9158U,
  0x3d2a2e94bc980c23U, 0x3d52ee3a3d0d626dU, 0xbb3329273d5b3e4cU, 0xbbef65eb3c32ed45U,
  0x3d3a0b333ae7f5d5U, 0xbb0e1cec3cbfc749U, 0x3d4cc3353c288dcdU, 0x3d65c08a3cf69207U,
  0x3ca095a33d076275U, 0xbad9d36f3d57c01bU, 0x3d29e6173d1ce1dfU, 0x3ceddb40bb38cd2aU,
  0x3d3120cf3c3f495dU, 0x3c10c3073b17ec07U, 0x3cdd46153c04a1baU, 0xbbfb3a8fbaeb773dU,
  0x3b87070e3d24425aU, 0x3d71fa2d3d6a0846U, 0x3d14ed6b3c1f64c2U, 0x3cdabfb23d396d43U,
  0x3c0df5583cd6f03aU, 0x3d4f9b793d0903fdU, 0x3d7ae3b43d656e62U, 0x3d2159c73d88cdf2U,
  0x3d926edb3d640053U, 0x3d00b9e6bab400ecU, 0x3cd223833d42f961U, 0x3d2dac783d4b50eeU,
  0x3d023c513d0eae24U, 0x3d3323b53c04bf2cU, 0x3d20f2503d566f4aU, 0x3bf4d1ea3d343535U,
  0x3bf315df3cbaaef4U, 0x3cb74c433d8e37c8U, 0x3cdb95e03d8c8006U, 0x3c95a0a23cc5b9b1U,
  0x3ce3d5f03b847c69U, 0x3d70daa03c87dd1aU, 0x3d0a14c13ac08abeU, 0x3c4d21ec3cf5bb44U,
  0xbaf3c6803c024644U, 0x3ccc72e33d22d0e2U, 0x3c25538c3d73850cU, 0x3d729f4f3d8b8631U,
  0x3c3d5347b90a13daU, 0x3d04ea773d73c192U, 0x3cca5c083d60b740U, 0x3cf7e1eb3ccbdcfaU,
  0x3d221f54bbd3a80bU, 0x3d714ebf3c3055edU, 0x3b9f0c3c3bb72bf0U, 0x3c97da833d44dd0cU,
  0x3cc60b123c81bf57U, 0x3d5a18773d0c90fcU, 0x3c11b45b3b86d483U, 0x3d459b8c3cf097dcU,
  0xbc2afcb33d5e4636U, 0x3b66805c3d798e2dU, 0xbc551d863bd12c54U, 0x3d53ba5b3d17b328U,
  0x3c3066b03c385314U, 0x3c9b31cf3cf602fcU, 0x3cb349173be86480U, 0x3d12b6e23c42ad88U,
  0x3c4a13583d00002eU, 0xbc2b1ba5bb6ac9d4U, 0x3d2bf7073c468878U, 0xbc97f43f3d10dfe0U,
  0x3c86e0733bfeb77cU, 0x3d08867a3d4a3ccdU, 0xbbcfd8843cc6189cU, 0x3d11d8fc3c6e5a23U,
  0xbbbc092a3d40bfa6U, 0x3d48ac1a3d34fa4eU, 0x3b2176d83cfefb41U, 0x3be091543d1b0269U,
  0xb98d63ae3ca214b8U, 0x3ce422cb3c9e49abU, 0xbcb243113d04bd62U, 0x3d20af6b3b77bbc6U,
  0x3cbe7ba53d3e349dU, 0x3d5445963cc1bd08U, 0x3c80d5653cf7d8fdU, 0x3ca8e5e83d355bd9U,
  0xbc24f40a3d04862dU, 0xbcb8c298bc0d5bd2U, 0x3b700885bc481501U, 0x3d4b61393bf4a5b4U,
  0xbc918f473c9bf2c5U, 0x3d34c76a3b954463U, 0xbcae951e3d24ad16U, 0xbcba3b563b74a7d8U,
  0x3cac10303c620162U, 0xb99a6cacbbe42c2aU, 0x3ce88a2dbc3ce3c0U, 0x3d0aed223d2a99a9U,
  0xbc332eb8bbf82449U, 0x3cc87c843cb58dfeU, 0x3cea9ed83c8b056cU, 0x3cee8132bc170398U,
  0x3d442a48bc34971bU, 0xbc9ddedc3d2832bcU, 0xbc808910bb4dfb9cU, 0xbc8870333ba5b4d3U,
  0xbc8987823c8df310U, 0xbca282c7bc374517U, 0x3ce472b73c985803U, 0x3d3920d53d0f4cd0U,
  0x3d3e62583d003a08U, 0xbc9f7087bc832ed4U, 0xbc250b703b0506f2U, 0x3cdec74b3d08c907U,
  0xbca7a8e1bcea721bU, 0xbccdda733ba62408U, 0xbbee86323ca7373cU, 0xbc52d3a6bcb02db5U,
  0x3c52912cbbad7c4cU, 0xbaa8a3753d0c3dd7U, 0x3cdedcfdbc885539U, 0x3ce918ef3b0cb872U,
  0xbcf145683c959f33U, 0x3c0619c0bc3a0f70U, 0x3be7de02bb88e594U, 0x3cf205323d362d21U,
  0x3d314466bcdfdb3fU, 0xbba0f4233cb161ccU, 0xbc9225d93c43844fU, 0xbb6abbc43cd5ead9U,
  0x3d2b039c3d32401cU, 0xbb3984ff3b208ea4U, 0x3d2645da3cea5fbeU, 0x3cb43a29bc529fbbU,
  0x3c8629e23d209a79U, 0xbbd4d7b83c0ac4d9U, 0xbcbd63003ca0a254U, 0xbc290d783c56e6a4U,
  0xbbcd86fb3b82df34U, 0x3cff804c3d075b98U, 0x3c9e52383d12f9b8U, 0x3ce4c8543cabbcd8U,
  0xbc73b9f73d29951bU, 0x3ba2e2ddbc6f7711U, 0x3afe71743cbb0ac0U, 0x3cd41584bd011cedU,
  0xbce4e928bcb8a75aU, 0x3d0371543bfef34bU, 0xbb0631abbcbb2c18U, 0x3b35da0a3d049717U,
  0xbc475fa6bc306cb8U, 0x3c789b2abca92ed5U, 0x3c08f7be3cd24a29U, 0xbb80dbd6bcda05bcU,
  0x3cf22a00bc92cbc0U, 0xbb0901ed3d28150dU, 0x3c8becb53c256ac0U, 0xbcd14ec43c920227U,
  0x3c8e2c2c3c49a4ebU, 0x3cc55d1fbc90bbd4U, 0xbc2ca7aabc418a23U, 0xbcc9f9893a12de39U,
  0xbc7c201d3d066a65U, 0xbd0793e6bb901122U, 0x3d2cd1db3b645159U, 0x3c0447363c9230d2U,
  0x3d19a0103d1ab3abU, 0xbce161883c92aa95U, 0xbb8732febca4534dU, 0x3ce991a53cdf0dffU,
  0xbbcc72403cf4d251U, 0xba64df51bcdf9845U, 0x3d0b84d9bc987d07U, 0x3bdd22843cc4ce06U,
  0x3c467ecebc87d175U, 0xbc86ef0a3ce16449U, 0x3caf40ffbb988041U, 0xbb6c71d23d12beb9U,
  0xbc6e25823b938f05U, 0x3cf850dbbc0cab1fU, 0x3c032cf63ced5ea0U, 0x3cd6258abcfaa3bfU,
  0xbc5b82d7bbb546f3U, 0x3ce8c2af3d0bd5ccU, 0x3c1c165a3d095e3fU, 0xbcc46598bb3ae284U,
  0xbc2a6dcc3c8b3892U, 0x3cf43eafbc90a9deU, 0xbc4064c83c5ec526U, 0x3ce7811cbc909a38U,
  0x3d1b9c7abccf25a5U, 0xbd0abd923ce7d9bbU, 0xbab3c4413cf9a823U, 0x3d0167a5bca4f9dfU,
  0x3ca271773cd7bc83U, 0x3cacd6fe3cfa9ca8U, 0x3b09391cbb84e3c3U, 0x3c87ef493d24a42aU,
  0xbb22340cbb311f58U, 0xbb27fe3f3c1c3261U, 0xbcaaac0d3b5e09c7U, 0x3c9b7d1d3c9fe95dU,
  0xbd0b37d4bc8d4967U, 0x3a507e6dbcaf224fU, 0xba8d160ebcf4a70eU, 0xbc70a663bcc51b69U,
  0x3c876779ba5e7327U, 0xbb8a2ef2bcde09bcU, 0xbca8a486bcefdf0cU, 0xbcb9f2e1bca69f52U,
  0x3be5572c3c399075U, 0x3cf75781bcc4ab06U, 0xbc37d2f3bc50c2f1U, 0x3d0481653c7911bfU,
  0x3c8a38203adae572U, 0xbc8def373be0ff1aU, 0xbcd6bee43d06be92U, 0xbccb575ebc4526b1U,
  0x3cba3189bbd4ea92U, 0x3bf6bafbbd14bba7U, 0xbd0a7a5c3b2f4bdcU, 0xbc960fd83bba8294U,
  0x3c4699e13bb4ed3aU, 0xbca5ab1b3c89f7cbU, 0xbcfcd6ff3d0f62a3U, 0xbc3960dfbd03ce7eU,
  0x3a9e1301bd1c30d4U, 0xbc76e2bf3ce89a67U, 0xbb18ac2cba0336c1U, 0xbc961e2e3c5fb8dfU,
  0xbc355940bcd4f97cU, 0xbc4a3379bcbe7f0dU, 0xba8739d23c7875c3U, 0xbcfd57a13ac91973U,
  0xbd19c9a9bb82a5f0U, 0xbd0769573bee3c00U, 0x3b56b293bc45ee52U, 0xbc90f74bbd3326b8U,
  0x3ca1a501bcfeed04U, 0x3cece2983bceab75U, 0x3c86d3c5bc8c1e35U, 0xbb10a713bd01cf89U,
  0x3c6515d53be8089bU, 0x3c7a14773cee6d3eU, 0xbcc0c360bccef679U, 0xbac3b97fba90e476U,
  0x3bd0190abcd339b3U, 0xbd3e605dbd027b10U, 0x3c178086bce6eed0U, 0xbce3a557bbac5ef7U,
  0x3c00d86d3cb6bde5U, 0x3ccb3a863caf44f6U, 0xbc3b49263c514b38U, 0xbc1ca12dbd0a384aU,
  0xbcb6e030bc32c71dU, 0xbd569e41bc9da3f8U, 0x3c8dae27bce723dcU, 0xbccab704bd4b9969U,
  0x3bf1066b3b66849cU, 0xbd24c14cbbbf51f9U, 0xbc5026b13c44200aU, 0xbc38a11c3bd99691U,
  0xbd12bc89bcfe83e7U, 0xbaa73a003c804355U, 0x3c85ca2fbcf2f442U, 0xbd02330fbc6f52f2U,
  0x3c8991afbcf751c9U, 0xbc9a684fbb5b3702U, 0xbd01f42e3c0ac8ceU, 0xbce0cecebb9beb5aU,
  0xbc9f7915bc31453eU, 0x3b6b5e52bd758825U, 0xbb85bf23bc6771e0U, 0xbc9918d7bd3c5304U,
  0x3a0a09dabd61a824U, 0xbd156aebbb67f5ebU, 0xba694013bd24962dU, 0xbcf7cdc4bd8397a6U,
  0xbcf5b11abd04c50bU, 0xbd587864bc32582cU, 0xbd2db6bb3b02a9c2U, 0xbd878395b6b5d357U,
  0xbd46ac97bd1865deU, 0xbc83cf6cbd835740U, 0xbbbe0f56bd749dd0U, 0xbd52d42dbcc28702U,
  0xbd1bd744bc92b29bU, 0xbd7f5109bd8c0171U, 0xbca3ad96bcbac26eU, 0xbd929ebfbd7f35f4U,
  0xbd8b9962bd0a024dU, 0xbd5484f4bcf2960cU, 0xbd0366a1bc785bb2U, 0xbd933931bd9637f9U,
  0xbd2819fdbd6bbdbeU, 0xbc957756bcf60594U, 0xbd817a3ebd6bf335U, 0xbc4cea3dbcc6a010U,
  0xbd51995ebd52e713U, 0x3a1e4a69bccc068aU, 0xbd531da1bd929bbeU, 0xbc1ca9a13b6968cdU,
  0xbcbd2e7cbca72e24U, 0xbc9d711d3b6c4734U, 0xbd267800bc8e5193U, 0xbd89b111bd37592cU,
  0xbcb26005bc61884fU, 0xbd4fea61bcc99df7U, 0xbce77174bc883cecU, 0xbc9a6ae7bca6895bU,
  0xbbc9f172bd5a4a9eU, 0xbafd80b5bc0488adU, 0x3b850606bd06592bU, 0xbd26a5f2bc4b7d1fU,
  0xbc6524b8babbc908U, 0x3c41c640bc85833eU, 0x3ac221b5bd3127e5U, 0xbd3eed03bd5d634eU,
  0x3b2d37ffbc0cb5d6U, 0xbc14fbd6bd06d59cU, 0xbd4956afbc80a701U, 0x3c639ba1bd1d221bU,
  0xbb946d0d3af399a1U, 0xbc653b1cbc8f7720U, 0xbcca112bbc8af8ceU, 0xbd26988e3c3d1277U,
  0xbc51bf1a3bac3eb4U, 0xbd5431dbbd09cb0fU, 0xbae239213be22bf8U, 0xbd19b4453b69bb1dU,
  0xbd51a9d5bce08343U, 0x3bb04804bd57b28aU, 0x3c285bb3bd5293e9U, 0x3bba57f2bd18a775U,
  0xbd49260abd4ddd80U, 0x3b946a45bd16a7e6U, 0xbd4b4ad4bcdc11deU, 0xbd3b9835bd3a90beU,
  0xbc3182663c570d9cU, 0x3c4b193dba05234bU, 0xbd2dbf993c8c26d8U, 0xbc1a44a13c7a5dbfU,
  0xbcf326ad3c660c02U, 0xbc5d564bbd407ae6U, 0xbd290014ba80ea09U, 0x3ba06916bc6b76cdU,
  0xbc0fab413c01f308U, 0x3c0e0d263c42f01fU, 0x3b173da93b7d7761U, 0xbc1a1a56bd15eefdU,
  0x3cc85fb2bb6ed914U, 0x3b1d612dbcc3422cU, 0xbc10e38cba20b448U, 0x3c9f897abcf8d171U,
  0xbd020cf3bca86232U, 0xbc484ff3bd36bb6bU, 0xbd0c805cbd49fd54U, 0xbcf09f013b43e3c1U,
  0xbc47e0d03cc0204fU, 0xbd344ca8bd28fe5aU, 0xbd3f9ebf3be506a3U, 0x3cd760cbbd3f47baU,
  0x3b5760d1bd295292U, 0x3c977ff7bd19311aU, 0xbd4426843c8084ecU, 0xbd34adabbd3a833eU,
  0xb9b061c7bc85395dU, 0xba4a8e923cdd6092U, 0xbd0838363bff46f0U, 0xbd12cd14bce36e87U,
  0xbcdbb638bd1e8bf9U, 0x3c7c7336bce4134fU, 0xbbaf6f6dbc087d5eU, 0x39988da93b5950a6U,
  0xbd399bd6bcf46b8bU, 0x3c650a17bd26951dU, 0xbc032112bc168b51U, 0x3c446754bd04963eU,
  0x3bc025b1bcf69de2U, 0xbd12bb023cb3feeaU, 0xbc3f78c0bc048cd0U, 0xbd197cedbc9287b8U,
  0x3c96c1a8bb2829b4U, 0x3ca37b763cdc6057U, 0xbca1107abbf93655U, 0x3c705ba73ba81588U,
  0x3a0826623c7bf338U, 0xbc463f84bcbb15f3U, 0xbc26f7c0bcb4cf8eU, 0xbc574e97bcc4801aU,
  0x3cf22e39bc4600d1U, 0xbd0d98203c0633d1U, 0x3cf2f438bca592b1U, 0xbc383359bce07d3bU,
  0x3b4bca97baa483d0U, 0x3ca6e213bba56020U, 0xbc85ebeebcf1f3c9U, 0x3ce11aef3bb16cdaU,
  0xbc39a367bca7e528U, 0x3ceba9383cbea6eaU, 0xbc8234383cdb0f47U, 0x3c5ffe32bc475c6dU,
  0x3c96bcffbc889de1U, 0xbc8bdf7ebd082fa9U, 0x3c7cac46bc8aef94U, 0xbcec4f483c8bde44U,
  0x3d037aee3c4065dcU, 0xbd1c7dc63ce23625U, 0xbbff7e803ba9ba08U, 0xbc341cb0bcd022bfU,
  0xbb81debc3ca4f6bfU, 0x3d04b951bc57d7adU, 0xbcb351c4bcf65eccU, 0xbd136687bd294cc9U,
  0xba81b04dbc8caeacU, 0x3bffc3d0bb943b46U, 0x3cbb6b75bb9fd9a7U, 0x3d08fcf6bb84c55dU,
  0xbca5f728ba5b8046U, 0xbc8350d73cbac09fU, 0x3ac35d8f3d04ca0eU, 0x3cb1307f3c054d10U,
  0xbccab5c43b107146U, 0xba42f8993c5b7a2aU, 0x3cd4fdf83cd73becU, 0xbbd7598dbd324c3cU,
  0x3cb22bacbc351d82U, 0xbc588ef1bb2ed495U, 0xbcd639fe3cbf67a2U, 0xbc926102bd30c7a7U,
  0xbc38d3df3c684524U, 0x3c4b3f45bcf57619U, 0xbbbd73873c902ed9U, 0xbce98871bb1397cdU,
  0x3b03b3a73c5d080eU, 0x3ba68a3cbcd56fa3U, 0x3cde94d1bc849dd5U, 0xbb2705173c354c81U,
  0x3a61cc36bbaaa424U, 0xbc5a87503c517689U, 0xbd207b1dbd250f0cU, 0x3d051a15bc968281U,
  0xbc501be13b8ef2ccU, 0xbccd7afdbd26a422U, 0xbc9c5f313c93de8bU, 0xbd141b3cbc8f9b87U,
  0xbac7d951bbd4ad61U, 0xbcd6e301bad57804U, 0x3ce287e0bc6ba878U, 0xbc8c19b0bcefe270U,
  0xbd168b20bd0776c3U, 0x3ce0f3d3bbd54870U, 0x3cddab18bc109c79U, 0xbd168fe83cd004b6U,
  0xbc8f6928bd08758fU, 0xbd2a812e3c8a8bceU, 0xbc5d8c71bcffa16fU, 0xbc998ca83cc5f4a6U,
  0x3cecf6793b6960aaU, 0x3c27f8dc3caf9899U, 0xbcb94e7c3c241a90U, 0x3c25b6c53d081be8U,
  0xbcbfb3aabcb54c85U, 0xbbcfc28dbd10b16dU, 0xbbfa1052bcc2e948U, 0x3c8322343beec755U,
  0x3d091582ba2d1673U, 0xbcdb971b3c47ea6cU, 0xbbf3efc63bcce862U, 0x3cf83614bcfc3559U,
  0x3c6ee4b7bca18714U, 0xbbfd9a64bcd3e889U, 0x3cf153b23d0aae87U, 0xbb4fe590bcd2e48cU,
  0xbc9f24cdbba7b498U, 0x3cdb0ea83ce9092dU, 0x3a6a0841bcd2902dU, 0xbceddef43d06082bU,
  0xbce29ed33d0d92d8U, 0x3d0301fcbc7fce33U, 0xbd04e6d3bbbb9ed0U, 0xbd0af7c3bc1fc21dU,
  0x3bf5a5913c964081U, 0xbcf0c1d8bb32102fU, 0xbc938790bc467808U, 0xbd0d70c63cf673fdU,
  0xbcc470e23c07b5e6U, 0x3d0a30c8bcccfd15U, 0x3cba0e5f3d02bf72U, 0xbc3c3bf43cf49354U,
  0x3ce22c4ebc9842b4U, 0xbc7b0d5abc9ca3f2U, 0xbb1411f1baf21169U, 0x3c5b381b395b4344U,
  0xbcaa969d3cb93b70U, 0x3cf83b40bccbc41fU, 0xbc86d0a73d00a85dU, 0x3cb8c88f3cecc815U,
  0xbc14aea83c68f4adU, 0x3bf7f9c33d2529acU, 0xbc68b0c63cd5ce09U, 0x3b760335bc16d54fU,
  0x3c474a463cefae3aU, 0xbcb252f0bc5aba71U, 0x3bea9b323d3d65e8U, 0xbbee9ccb3d3486c0U,
  0xbb6a71d93c235252U, 0xbb706a053cc4e35aU, 0x38dadb6f3ae48257U, 0x3d30d68b3c960bcbU,
  0x3c36de823d21c0e7U, 0x3ca024483d14a3fbU, 0x3d43f994bbd572b7U, 0xbca337053c416691U,
  0x3cd21b22bc9b8ef0U, 0xbc28d34cbc91a99eU, 0x3d3e33233d57748eU, 0x3ced75de3c49da9eU,
  0xbb860df03c8fbafdU, 0x3ccef1943d0b0779U, 0x3d47557bbc6f6caeU, 0x3a6dd4fa3c373340U,
  0x3b7b0bbe3cd87604U, 0x3cfc24653d4cd902U, 0x3d16e601bc6dde0eU, 0x3c5cc2be3d1cdafcU,
  0x3d3007603caa34b8U, 0x3be753e73ce8e29fU, 0x3ccdedd43c1aca92U, 0xbc4254023c57cb39U,
  0xbb01df323bff0a6cU, 0x3d349d7d3ba3619dU, 0x3d5f48c53ceabb96U, 0x3d6d848a3d6d4029U,
  0x3d024143ba8e8ab9U, 0x3d341ac83ccb33cbU, 0x3d86b5e13d6f7369U, 0x3d4d83443c8c81c0U,
  0x3d657e413d47f440U, 0x3d494fe53bb05a9bU, 0x3c4e2e393c8bbd16U, 0x3c8ac11c3d794dbbU,
  0x3d93b98c3cf85d1cU, 0x3caa7c133d2b90cbU, 0x3d3c474c3ccb0babU, 0x3d8b8fff3d39ff97U,
  0x3d49db723c5dce26U, 0x3d6442a03b781827U, 0x3ba2ffee3c5106ffU, 0x3d7fb2b93bc3519dU,
  0x3cec694f3ce4409fU, 0x3d0fb23a3d37d1f3U, 0x3c514bb83cc89222U, 0x3cf3da1d3c966dfcU,
  0x3c76b03a3cad17e2U, 0x3d5e725d3c6922ffU, 0x3c5995f23d255b47U, 0x3d2e12b03d7fbe5dU,
  0x3d19d3d23d2b8770U, 0x3b2c86c6bb870431U, 0x3d73f1f63cd3fee1U, 0x3d1dc2e43d88a4b0U,
  0x3cc8dc82baca45dbU, 0x3b35ed4f3d172dadU, 0x3d543e423d087c64U, 0x3d3ee35e3cf1c466U,
  0xb9fe0f913d1f0a00U, 0x3d3cf15c3b9b8ad4U, 0x3d616fa53d5bebcdU, 0x3c20f9843d1e4508U,
  0xbbef106c3d5f14daU, 0x3d1dad1ebc1d742dU, 0x3c0144713cc02e04U, 0x3d2eb93cbabb9186U,
  0x3d677ee8ba7ea783U, 0x3c98cd6c3ae37316U, 0xbc4cd3733ccb8eeeU, 0x3d0fa4243d6aa83fU,
  0x3ccba91e3d683d03U, 0x3d5c9132bc161344U, 0x3b4944f1bc26a2baU, 0xbbcfb6fa3c691a10U,
  0x3ca6aa383c72891cU, 0x3c83cfdbbc83301aU, 0xbc8395e73afeac4cU, 0x3d1d3e8c3cbcb1e7U,
  0xbc9d14b93c525985U, 0x3cb46d543cb5b505U, 0x3d1b6e0bbbd9c048U, 0x3d2fe3893aaeae8cU,
  0x3d1d3f813d0aa079U, 0xba0318093c655a7dU, 0x3d0552e43cc0af2cU, 0xbc90335a3d38c394U,
  0x3d10e8ba3b93df10U, 0x3b5d04473d5a5ae9U, 0x3d51bfe33d487635U, 0xbc802dc6b9b8d136U,
  0xbbb733843d4dd64bU, 0x3bad89723b4a55f5U, 0xbb8dff953d38eef7U, 0x3d34e2d83d2fc806U,
  0x3cecf6423d3cfd24U, 0xbccdf641bca54b98U, 0x3c73d4313ccfa15fU, 0xbb2332f83cfeff99U,
  0x3bac6e4d3cb17084U, 0x3b80387fbbaefb6fU, 0x3ce8fe80bc43567dU, 0x3d178c8f3d0afe3bU,
  0x3cc8a167bc9047f0U, 0xbc9efa10bcc10d5cU, 0x3cc805ff3c96fd5fU, 0x3d36bc2b3cc1c8c4U,
  0xbbfcb8fd3cfbb255U, 0xbbdc20723c1d0c2dU, 0xbb94386fbc565e06U, 0x3cf9f0503cc55056U,
  0xbce1619aba57d4d4U, 0xbc29a424bc30e572U, 0x3d0e86f23d338bb3U, 0xbcabbc793d3673d6U,
  0xbc868bf93cabc9fbU, 0x3ba5f2c53caab4c0U, 0x3c93962d3d12e77bU, 0xbbef22263b3b3ac0U,
  0x3d271691bc8982a0U, 0xbc49de76bbf48fb9U, 0x3b87a431baa61ad5U, 0x3a6792f03b4a5d01U,
  0xbcd79c203c0550c4U, 0xbc097bb9bc947371U, 0xbc96c0643d1c4d3fU, 0x3c0b7613bc07f8c1U,
  0xbcd8bfa7bcd28c18U, 0xbc8e5fec3ca19791U, 0xbc9f40913c7e2553U, 0x3c45e4e3bce76c54U,
  0x3d3e8af63cba5c2aU, 0x3d36c9bb3cbb99a4U, 0xbc4180693aa20cedU, 0x3cb09536bba0f6aaU,
  0x3cb09bf73d37682cU, 0xbc9170cc3ab44d6aU, 0x3cf09897bc8889ebU, 0x3d24c3b53cab39a9U,
  0xbbbb70ccbc4d3686U, 0x3c1df5513d3afcd7U, 0xbcd8cdfe3c0fa304U, 0x3c612d7e3bd572e3U,
  0xbc1000ef3ca874d9U, 0xbbeef6d63d1c6e86U, 0x3cd8278a3d0868c4U, 0x3d2d7539bced6d7fU,
  0xbbcbed47bb7303d1U, 0x3c865d58ba5d148dU, 0xbc9263403c9f92b1U, 0xbce03fc93ce97945U,
  0xbbb769713b47297bU, 0x3c647cc93cb75ccbU, 0xbd03e14b3d2e8443U, 0xbcab79603cb07b48U,
  0xbc49c135bc1c0a31U, 0x3bbe61563bec7205U, 0x3c890457bc8bdc8aU, 0x3ca019c7bbe460ffU,
  0xbc1618fc3cce26c7U, 0xbd056f833c936b70U, 0xb9d4f70f3cf327efU, 0xbca6cd69bac9a6efU,
  0xbb8b59893d032ee6U, 0x3cbaf7073b95b72dU, 0xbcc0b2723d224643U, 0xbd052aa23cd2d1b5U,
  0x3d0a9f2bbcc8921fU, 0x3c9aaa643cbcac4fU, 0x3d0e0b6f3ccf9ca8U, 0xbd050633bcb8c36dU,
  0xbcc6087db9eca5c6U, 0xbc8923973c2f8f97U, 0x3cb6d0d43c4a585aU, 0x3c4391183d126daaU,
  0xbc960b4fbbf8e143U, 0xbccbb2243d07c22dU, 0x3c223e58ba4112bdU, 0x3c206b933d05f9c0U,
  0xbc69f1ebbc840502U, 0xbbc390fd3c49147aU, 0x3d19328cbcb525f3U, 0x3cbc38ef3d1fbeabU,
  0x3d25de103afaa3a3U, 0x3c470b56bce60b29U, 0xbcde4f9fbc45437dU, 0xbb120c8bbcd04dc8U,
  0x39fffb77bccf96a0U, 0x3cdb2be6bc0fa7deU, 0x3bb2bab2bc2f1418U, 0x3b3023ffbb2208afU,
  0xbcd30eb9bcd009efU, 0xbb791689bcf2789fU, 0x3c6fa7cbbcbd7e4cU, 0x3bd6ea053cbacc9eU,
  0x3cc351a4bc54e9b7U, 0x3c29f9d23d0dd1e1U, 0x3c89ae34bb0c6fd4U, 0x3ce42b3ebc443a6fU,
  0x3add00fabc92c0ebU, 0xbcf011803cf270bfU, 0x3d256a40bcbb9019U, 0xbb9f72ee3a29bd98U,
  0xbc21d6323d0a9d2cU, 0xbc149f20bcca837fU, 0x3cfa44b6bd0be38aU, 0xbac6a17e3c27db17U,
  0x3d11f2be3d050274U, 0x3cde7918ba0395b4U, 0x3b23ea1c3cfd48b5U, 0x3c8eff1ebd0f0aabU,
  0x3d08677bbc99ea8aU, 0x3d0b40bbbb07b152U, 0x3cb745593b2d65f6U, 0x3d0003e2bcb51d6bU,
  0xbd02bf84bd0c8a80U, 0xbd024c9a3c08ea71U, 0x3c80204d3d144d54U, 0x3d1571e43cde9181U,
  0x3b7155783cdca394U, 0x3b8024ecbd0bf1a2U, 0xbd12609cba5c7492U, 0xbcbe1db6bc679afbU,
  0xbc7c545f3c54b110U, 0x3cb859a5bc9d1690U, 0xbc8ee6293c1aec39U, 0xbb916da5bd165f54U,
  0xbcf238433cb197d8U, 0xba052bab3d150170U, 0x3c781ca1bcab7e53U, 0xbd1bb9743cb744a4U,
  0xbd1f61813be7cb28U, 0x3c6b180aba2556c1U, 0x3c37e79ebbc33329U, 0x3ccdbe9d3be83f17U,
  0xbc119c20bd215609U, 0xbc45d889bc5debedU, 0xbc7fbd713cc0fd25U, 0x3c10d1cf3c575cbbU,
  0xbc36b4cebc0fd3e0U, 0x3cdb9dd9bcd7d14bU, 0x3cdd42803b841152U, 0x3bada8b6bb4c2040U,
  0x3c8d851e3c703890U, 0xbd0e7d0d3c02bfd3U, 0x3c9209653b816652U, 0xbc30589a3bc6c94fU,
  0x3cf2146cbc8caf2eU, 0xbc81ce243ba68eccU, 0x3cc6e959bc8797f1U, 0xbd0075943cde8e2dU,
  0xbc7239fa3c2efa71U, 0x3bc9cddc3cbbf30eU, 0xbc812fa7bd363cb3U, 0x3aa43cf0bd36f91aU,
  0xbd1e9ea6bc92b796U, 0xbb4005853bc346e8U, 0xbccf4849bd3359aaU, 0xbc05ebf73c96f1a7U,
  0xbcd15192bc9cab13U, 0xbce0d5163b9b3d2fU, 0x3bf3fb64bc6fb45aU, 0x3c5bfbdfbd3e54d9U,
  0xbc928d00bd35bb1cU, 0x3af364efbba369b1U, 0xb9ea8862bc898d14U, 0x3c1a59dbbcb1de6bU,
  0x3c7493e4bc53d804U, 0x3c26d8f0bd405494U, 0xbd4a48e1bb9bd6b2U, 0xbd52f87abcb07d30U,
  0xbca493b53bfa7602U, 0xbc556c043bad8844U, 0x3b16b4ccbce58382U, 0xbd49ef0ebd4afe49U,
  0xbd509b4abd36e4d5U, 0x3b1a5d2dbd4975baU, 0xbd372e69bd65dc3aU, 0xbcdfb26ebd4cea5bU,
  0xbd381483bd4cfd9eU, 0xbcebdc7abcbbaa93U, 0x3c2c518c3bac6af4U, 0xbc8295a9bb81923dU,
  0x38ab3e42bd2cef25U, 0xbd6cebd3bcf50aa3U, 0xbd674a32bd18c421U, 0xbc86f850bd659463U,
  0xbc36cb14bbcf084fU, 0xbc6bbcf0bcb34dd0U, 0xbd289c03bc383a14U, 0xbca12869bcd72973U,
  0xbd08a551bd84b69dU, 0xbcd88661bd8d7601U, 0xbc677b62bcf135dfU, 0xbc44ccc1bd08edcaU,
  0xbc9ca5d4bcaaea87U, 0x3d220a1fbce2d4e4U, 0xba780250bca4e788U, 0xbce1f33abcf23906U,
  0x3c2e6ccbbad75a18U, 0xbcec034abcb7fc50U, 0x3d18b9923bff9cf0U, 0x3c2238a43cd27077U,
  0xbbf7a62b3d193797U, 0xbc9d29763a858f10U, 0x3bd1ffa63c8841e6U, 0xbce11c83bc0ccb82U,
  0x3c76596dbc943877U, 0xbb2a2cf1bc6c0f99U, 0x3b21f4e0bd0aa853U, 0xba1f1c0abc07e079U,
  0x3cef84603c0cb385U, 0xbc85e23f3ba6978bU, 0x3c9049b33b01f773U, 0xbcab0dcbbcbc279eU,
  0x3ba416403d03546cU, 0x3c6022773c6f886fU, 0xbb1e0384bc499366U, 0x3c69e2c83c7677bfU,
  0x3c0cb9e63cca5d4cU, 0xbbec8a813c4e70a4U, 0xbcab0ef13d1f3683U, 0xbbd550ccbc2840b7U,
  0xbccd004dbc8ff9f3U, 0xbcce82533c7c4c0cU, 0xbb873478bcab1c99U, 0xbca8bcfabc613654U,
  0x3d21bfb6bc727651U, 0x3c326ac93bb17d95U, 0xbcb146013d14bf09U, 0x3b008ffcbbb36d95U,
  0xbc8598d33cc0181bU, 0x3d0104d33c125d6fU, 0x3c6dec923d20f9a5U, 0x3d0af571bcc7666cU,
  0xb965b1afbce3684bU, 0x3b934c1c3cb7d733U, 0x3b4b5c5a3cc15395U, 0x3c7f49eb3c00b368U,
  0xbc8dca62bcdc2ea6U, 0x3c107a593c9b9ff1U, 0x3ae398653c16a0beU, 0x3cab70583d0ecde5U,
  0xbce53bb4bc8f7879U, 0xbc90caa93c9e92eaU, 0xbc65c6b2bca977efU, 0xbc488267bce06d94U,
  0x3d2278ad3c147152U, 0x3cd29f023b4c3455U, 0x3b204b0abcc6e428U, 0x3cdeacfbbcb18522U,
  0xbcaa55473d09c6edU, 0x3c2178b8bc89d474U, 0x3c716175bcf8df42U, 0x3c767dc73cce4c25U,
  0x3c40ddc33d118ef0U, 0xbcc65d643c07e0a6U, 0xbb937df1ba51d48cU, 0x3ce8f2f73c903d2cU,
  0x3c09da7e3cdcdad3U, 0xbbec6813bc531e3fU, 0xbbf8b31f3d1e4cdaU, 0xbc4fa12d3bdede4fU,
  0xbc62d4463d198451U, 0xb8bdaec5bba94a35U, 0x3d1462ccbc4bdd4aU, 0xbb734cd33be5cbfbU,
  0xbcef4b873ceca74aU, 0x3cd197033cb99fd3U, 0x3c0acb47bcdfd272U, 0x3cfaca10bccc0489U,
  0x3b76fceabc8c327fU, 0x3d04515c3c118130U, 0xbcc66e00bcdef682U, 0x3ce801d23b851609U,
  0x3c35b9513c5ae99aU, 0xbb8e85913d1f27b4U, 0xbcdb4cdb3cc5f6f7U, 0x3cc6f2593c330cbaU,
  0x3c65a236bb40fce7U, 0xbc41492a3bb17e7dU, 0xbb99a8ea3cc25778U, 0xbcb0d17fbcebab3aU,
  0x3cfa5eb93ce5b8e4U, 0xbccbff8e3c0bddf4U, 0x3bdd1e00bb06a0c5U, 0xbaab32523a4d099fU,
  0xbb950132bce5f5c7U, 0x3c0ff80cbd0329aeU, 0x3ca38da73cb28d72U, 0xbc572740bd083d7cU,
  0x3c96eaa0bd02d645U, 0xbcb017803ce8f282U, 0x3c100795bd03e05aU, 0xbbc753f73cb467faU,
  0x3ca14326bb39b3b4U, 0xbce104a5bc443a15U, 0x3b2ed4d9bc8a3059U, 0xbc85c12c3cb9b0a0U,
  0x3c4c86c0bd1b9833U, 0xbcc6f65d3c1d05cdU, 0x3d03bd533c02346eU, 0xbd1c310c3caba50cU,
  0x3bf4f59bbcb1e118U, 0x3ba0d85cbca87962U, 0xbba8fe233a506494U, 0xbd07e3723cc45b2dU,
  0x3c24a9263ccd21f1U, 0x3d010b363c0dfcdcU, 0x3bc665a23c37476fU, 0xbd0b3c213c79e5a9U,
  0xbb03b0fe3cb05c24U, 0x3cb58cccbc5d6a96U, 0x3c4ded65bcffd521U, 0x3a94b1bc3c494cd4U,
  0x3bb97556bbd1f2c6U, 0x3b9714b6bcca9367U, 0xbba0f8f63c238690U, 0xbc731a393cf67b52U,
  0x3bf7898dbd1c5088U, 0x3cd63b283d15a280U, 0xbccb40d23b7dbf3bU, 0xbd1f291fbcf19a4aU,
  0x3ce589e63b90afa0U, 0x3cc264d43c6fa69bU, 0xbd0eddb9bcf0310cU, 0xbbdb88c63c172742U,
  0xbd022f16badfbde5U, 0x3c1ea4743cc16b65U, 0x3c4dc8c63b87caedU, 0x3c5d5431bca4ddafU,
  0xbc7f7da3bce8c7cfU, 0xbcf04169bcd8c779U, 0x3bd43c4dbcebf84bU, 0x3c11781a3cc4a9c9U,
  0xbc395e663c6bdf61U, 0xbc8ec0dc3d0ad087U, 0x3bdce5fe3c09223cU, 0xbcb72f1dbbc532f8U,
  0x3bc7f5c6bcdc01d6U, 0x3cec8a27badcc710U, 0x3cc717ab3c86a31cU, 0x3c2914d13c1e3970U,
  0x3cf2696d3d1a4ce3U, 0xbce51ee93d2a5497U, 0xb93e0fffbcb4a37cU, 0x3c6a58093ca01f76U,
  0xbc5aa2f0bd087a64U, 0xbce1edb0bca36e92U, 0xbc2b2bd03d12b657U, 0xbd0801ca3c9b2714U,
  0x3ceae232bc4fdf2eU, 0xbb54761d3c315610U, 0x3c405f6abd05f923U, 0x3b82f4a13c66f89bU,
  0x3d066c293ce773e1U, 0x3d0ad5be3c8c31a5U, 0xbc9bcd063cc63071U, 0x3cff6c76bc8d6070U,
  0x3a7281213d0f4296U, 0x3cca82303c6538caU, 0xbd0556053c21b47bU, 0x3ccd13853cfdef0dU,
  0x3d23ed993c58bccdU, 0xbcac84213bf41e35U, 0xbcab8dbabbe122f1U, 0xba179e9e3b5ab8f0U,
  0xbc530f27bc42ba95U, 0xb9dc8bc83c0cf3c2U, 0x3d28fb69bc98e416U, 0xbc9f95573c97a098U,
  0xbccd9e733cdd2df7U, 0xbce293a23b59dfcbU, 0xbd01c64e3d065632U, 0x3cd1b81d3b024cebU,
  0x3c9111393c8f9c1fU, 0xbd18f5713c158b62U, 0x3cb14e693b8f5d66U, 0x3c9d361a3c837292U,
  0x3ccdfc1ebd17aebeU, 0x3c8940483d0a0674U, 0x3d1ce24a3d14dcb0U, 0xbca383763d0da29cU,
  0x3d1f8cbabceafa32U, 0x3c34d7d33cd11129U, 0x3d1aeb4f3b5a73a0U, 0x3cff6b7c3d19e8d8U,
  0xbc89f7e4bbbd4e35U, 0xbcb14c74bb80ace7U, 0x3d078ef13c658921U, 0x3c9ba4563d0507cdU,
  0xbcb6fca4bd0fb24aU, 0xbc835139bbf7880cU, 0xbc298f903cfe3e55U, 0x3c6aba12bd1a46ccU,
  0xbcff644abcba2164U, 0xbaabe8e4bbf31105U, 0x3bf15926bb61a3d4U, 0x3c3e07cdbcaffd5cU,
  0x3d0927e73cce33fbU, 0x3d019b5f3c481fbaU, 0xbc2717073cdc045cU, 0xbcb83000bd129623U,
  0x3ccaa9e53b7a90acU, 0xbc9f04d13ca33b5cU, 0xbca323403d0e2f65U, 0xbbf31bf33c61f657U,
  0x3c6b3a5ebc96dfc9U, 0x3baa3e7cbc43d7d5U, 0xbad8a125bbe426e3U, 0xbc37da273d138992U,
  0xbc0168973c53e112U, 0x3c126442bd08025bU, 0x3d069c38bc9d958fU, 0x3ccf7caf3c46240eU,
  0x3c226a343cb3fff6U, 0x3c351ea73b87b790U, 0xbc8ad1153d02723dU, 0xbc675d1bbd014d0eU,
  0xbd1c22d8bcbda8b4U, 0x3cd2c77bbd1009b2U, 0xbcbab7593c990acbU, 0x3caa5a7abce49404U,
  0x3c8e4bac3c973f1eU, 0x3d21ea233c8fa857U, 0x3c94dc503cadccb4U, 0x3aba05d13cf2b952U,
  0xbc7baebd3cfc520cU, 0xbbe6d6e53bb568beU, 0x3cd9176a3be367b9U, 0x3ccafc863ca73f53U,
  0x3c3fa1623ba971f5U, 0x3c6c4421bb601a1bU, 0x3c6287653cdb1e90U, 0x3cdc360f3b867799U,
  0xbbfe4a323bfaa240U, 0x3c6e9d20bbf42d02U, 0x3d188d89bcf78c92U, 0xbc16d7073c51a701U,
  0x3d38b63f3c318474U, 0x3cb9d773bcc944a5U, 0xbc7bbc713cbfa72bU, 0x3d26f1863bc2a856U,
  0x3c0c6627bc9451b0U, 0x3d07a4b0bc0ce725U, 0xbcd596bebc7224fdU, 0x3ce942173cbd3d28U,
  0x3d2d3a2a3c74d8e5U, 0x3c295849bc558ea3U, 0x3bce22a03d1aa7caU, 0xbc512fdf3cd8678eU,
  0x3cb53e7dbc0cf3e9U, 0x3d04350eb8bf11dbU, 0xbce7a0793d170d50U, 0x3cfaed47bcb7bc09U,
  0xbcce99c83c9db70bU, 0x3d136f57bd00ce22U, 0xbc63cce7bcdb46c5U, 0x3d2861343d0ee0c6U,
  0x3d0e5a79bc6bf531U, 0xbb8d7cb8bb96d0e9U, 0xbbefae853c9f2aceU, 0x3d194bc23c078e20U,
  0xbc8f0c443d0679a3U, 0x3cf5057fbc96557cU, 0x3ce7c5d43d0846edU, 0xbac3da273c818c65U,
  0x3d25a1ebbb7e33fdU, 0xbbe4c940bcd01babU, 0x3bed46f63cd70f80U, 0xbc199c823cfa2c81U,
  0x3cb743753d037b69U, 0x3c8e6fd33c11e75aU, 0x3d09a5163c2dd90bU, 0x3c122f6d3caf9200U,
  0xbb36c2c83c8e5fafU, 0x3cf2d889bc0d6b31U, 0xbc3028863cedab1dU, 0x3c00bb023cf09c67U,
  0x39cd19583b0164c9U, 0xbc41c7f53c84a353U, 0x3c56fa8d3d1a15aeU, 0xbccc3a1f3ce5c6ffU,
  0x3d1a02bc3c71fb80U, 0x3d08413e3cb08c41U, 0x3c96fbbd3ccbedc4U, 0x3d2d5d4c3cbab7ceU,
  0xbc9aec48bd02682cU, 0xbbbc7bb23b93c23fU, 0x3c2761b63c8fbf89U, 0x3d03ad85bc299f00U,
  0x3c7157913c3a02a5U, 0x3ccdf1f1bbad1f8bU, 0xbcc75f4abca46a4aU, 0x3a82cf263ce84d17U,
  0x3ce2bc5bbcdb7f42U, 0xbca5426bbcc2c963U, 0xbb5cb1fdba8da330U, 0xbcf1a5003cc05f38U,
  0xbc2a59603cc9db89U, 0x3ade05443cb45976U, 0xbc99ba333c4d6734U, 0xbccea5853cff8419U,
  0xbc8073fabcd56029U, 0xb995725f3c0dd99aU, 0x3cf8a6e83d18c55bU, 0xbcecb31b3a889b6bU,
  0x3c18d7d13d2906ffU, 0xbc61929c3cae0833U, 0x3c900821bcd77fefU, 0x3cde61703cb21b5cU,
  0xbcb1306e3c8c96feU, 0xbc2830c23d2be1d3U, 0x3ca1c0563d12ff04U, 0x3cebd3763a689175U,
  0x3ca825a63cc5984dU, 0x3c75ae4abc94d849U, 0xbbbcb3e23d279675U, 0x3d021d14bb92ca47U,
  0xbc56f20bbaacbc5cU, 0x3b5c501c3cada2d6U, 0xbcb66a0bbc999e04U, 0x3d18f1f33d15deabU,
  0xbcb4ed9b3cb06403U, 0x3c19b3853cc749b7U, 0x3cee2a05b9ef11efU, 0x3d00b9ae3cdfee0cU,
  0xbd06d5033c15ef97U, 0xbc0a6f533c91e309U, 0xbc5fc8f0bc1cbf3fU, 0x3cea53433cfc180aU,
  0x3d26750b3c8cedefU, 0x3c5d8c883d1a68edU, 0xbcfcdfd3bc1406acU, 0x3d081eb3bbfee237U,
  0xbb6983733c83ffc6U, 0x3cfbce293ccacd4dU, 0xbbfc10e3393be22aU, 0xbbe2a8833c9372f2U,
  0x3c623f0abcd53ac9U, 0x3c70191a3bd02ca9U, 0xbbf942a33c8992a0U, 0xbb722d81bcbce465U,
  0xbc564d0cbd04d157U, 0x3ca5b2393ce496f8U, 0x3cfdff3abb8ad95fU, 0xbc4404113d240f1dU,
  0xbc8ae8eabd059e39U, 0x3b6358a7bb0162c1U, 0x3cbdca413d1fa815U, 0x3cdb98ba3cb07ba0U,
  0x3d24fb03bc3c6618U, 0x3ce3b2383d19cdd2U, 0x3ca5695fbc0261daU, 0xbc890e8d3d0b6594U,
  0x3b8dd3353c8d7246U, 0x3c12e983bb839ad4U, 0x3cf826953cd5559bU, 0x3d02079f3d1c665dU,
  0x3d23d8d8bc04f68cU, 0xbc9d2489bb9d01bdU, 0xbb4166c8bbc6d5caU, 0xbc24854e3d0996fbU,
  0xbb9291e3bcbada71U, 0xbcc0aa863c91457dU, 0x3cc07d64bb122f30U, 0xbbbda89abae90adeU,
  0x3cad198ebd0a236dU, 0xbc9c154abc74df78U, 0xbc345d77bc9c1c79U, 0x3d00cd9f3c837cfdU,
  0x3c0e0427bc19b2bfU, 0xbc4364573cc4c8daU, 0x3c757a2c3cac3f02U, 0xbc6cf28db94aa40aU,
  0x3d235d16bd00e846U, 0xbcfb6efa3ce38055U, 0xbbb76f0b3c6513c4U, 0xbb43fc20bbecbaf4U,
  0x3c9626373cc091d4U, 0x3c431c5f3d02717bU, 0xbb9ac8a8ba9495c5U, 0x3d01918f3c589d9eU,
  0x3ca11b723bf18437U, 0xbcd013c1bcd9d53aU, 0xbcd0fb143b1e8fbfU, 0x3c3dcb48bc9dee8bU,
  0xbd038aaabd01583cU, 0xbbd22fe5bcabc516U, 0x3cc02647bc28b077U, 0x3bd34e7e3ca61912U,
  0x3c7c5f96bd0e9475U, 0xbc66f92bbcbb3ee4U, 0xbc83aacb3b697576U, 0x3ceeaa5ebc8ec9e1U,
  0xbcd97b4fbd0cf56eU, 0xbc373b74bd0aef16U, 0xbc651aa4bcf748bdU, 0xbcff3682bd0cb97bU,
  0x3b431f4d3b6d16f1U, 0x3ceb8ee03d043043U, 0x3d135cfdbbbfea5bU, 0x3cc9e9be3b8d9806U,
  0x38837e9e3d101b56U, 0x3ca19ed3bc200df7U, 0x3d10aa43bb9d40ffU, 0xbcb327a53cb13da8U,
  0xbcab5e87bca8fd4aU, 0x3ad15ba3bc4f283eU, 0xbc80dc91bac3df0cU, 0xbc2ff0bd3bcee662U,
  0xbc103acd3b0f2272U, 0xbb95c1b53c02f787U, 0xbb97c7743b5560c7U, 0x3b75151a3d060649U,
  0xbc9bc071bb023778U, 0x3c65aafdbc5f264cU, 0x3ca55bef3c8fa0b9U, 0x3c50c14c3d038222U,
  0x3d165f623d23cab6U, 0xbb9883313ba29015U, 0xbc95be66bc9a56b2U, 0xbc26329c3b13d4b4U,
  0xbcc66adb3d14d691U, 0xbcd4b6c43d24870eU, 0xbc49b40d3cdcd75dU, 0x3ce09074bd086ef3U,
  0x3cdc1be83d119896U, 0x3d2194a4bcaa26a5U, 0x3c0d23d7bbadfe63U, 0xbc9cf41e3d02e19cU,
  0xbb8481aebceab0a7U, 0x3cd1327a3c235300U, 0xbcb3330a3c1a1646U, 0xba99debabcfe660dU,
  0xbbc07cfabbf5e602U, 0x3d2272e13cc7675aU, 0xbb8ef4d6bc218e90U, 0x3c9616a83d18ea08U,
  0x3d062f413c9c86dcU, 0xbc79d315bc541db3U, 0xbc377b183c3016d8U, 0xbca7baeebc596968U,
  0x3cd41c10bc9fd538U, 0x3c3f68463ba49a71U, 0xba8d41e53c06bd93U, 0x3bf8c1cf3cfe13caU,
  0x3bb214743d098f9dU, 0xbcc950a2bcc8d266U, 0x3c35cb6b3cec490cU, 0xbc6c58403ca147a8U,
  0x3c38d884bcc5ffd1U, 0x3af14d2c3ae10561U, 0x3c0d16cf3b777492U, 0xbcf784febcfce915U,
  0x3d1c834ebb06ecfcU, 0x3a0b403bbcd30cbfU, 0xbce173c53b8a3de0U, 0xbc6f37723ce5930dU,
  0x3c305c743d000d70U, 0x3c106d4a3c34c89bU, 0x3d19b9b5bd07526cU, 0x3c13abf5bcd599bbU,
  0xb9422fe5bc497522U, 0x3c2d3a6cbcc87fe4U, 0xbcb5a9bc3d0728d9U, 0xbcf1c704bc763c86U,
  0x3c97b9eebc951308U, 0x3c385b22bbacc68cU, 0x3bb182ae3b09ad9fU, 0x3ce6111bbc5b33f4U,
  0x3c62f222bcbbad53U, 0xbce7dcf0bcb7f417U, 0xba5bc7b3bceb3e9fU, 0x3c58fbc03ce724b7U,
  0xbca782723c8cac98U, 0xbcb655d6bc637a26U, 0xbca93186bce344b2U, 0xbcaf35ebbb7f2e4bU,
  0x3d1fffc3bcb82c1aU, 0x3b73c22b3cf2e01fU, 0xbcf64c1cbc8b84deU, 0x3d24b945bc59c17dU,
  0x397eeb59bbce5e60U, 0xbccb3f86bcb20faaU, 0xbce3db9abc93a392U, 0xbd0bab38bc9f0977U,
  0xbcc4f7563c94c88bU, 0xbb55f8743d11ddb9U, 0xbc57ac2f3cb46189U, 0x3c6d51c73d171a8fU,
  0x3c57334ebc48b957U, 0xbbcab3fd3cb41fa2U, 0xbc569fb2bcffcb75U, 0xbd0fa132bba0b51fU,
